memory_initialization_radix=10;
memory_initialization_vector=
-3939
-979
-950
-919
-7039
-1034
-2900
-8489
-1652
-2673
-4304
-360
-2100
-794
-2572
-8166
-432
-6295
-5820
-9981
-3322
-2135
-9629
420
-713
-1426
-4267
-1933
-1060
-3827
-1628
-3765
-1555
-5699
-8858
-1623
-1790
-2725
-792
-3105
-5588
-3043
-2360
-7384
-1564
-3924
-981
-5042
-3454
-4436
-782
-1091
-2841
-4354
-740
-1985
-5373
-4143
-1861
-6933
-9360
-1345
-1208
-689;