memory_initialization_radix=10;
memory_initialization_vector=

-470
-62
471
113
649
137
18
112
-131
-68
102
176
744
214
-136
125
241
-466
-232
-106
132
-82
-153
-9
1041
-104
6
-203
146
-187
61
140
-250
801
30
278
19
151
-262
14
392
-123
237
18
8
-38
37
140
-209
-99
-323
-45
185
512
-59
172
49
249
-9
-255
166
633
-186
-191
-115
-74
34
41
82
-141
-56
-32
-14
-218
-90
-213
468
210
-53
344
146
356
-145
-177
-225
-413
347
-185
720
79
164
271
-135
28
-265
-120
-150
305
-143
261
115
-27
166
47
21
-17
1021
-235
-103
-147
92
8
-311
296
-160
-209
-342
73
254
750
-304
277
-151
126
351
280
158
177
-184
-83
809
-14
-6
-84
-98
-172
-316
34
240
-9
-102
-130
503
-296
-371
5
108
302
347
203
-95
-196
640
169
-36
424
79
618
-485
-148
704
-263
87
-197
91
-206
-327
208
687
336
-417
-28
54
294
130
791
-58
20
-41
-258
-133
-275
-158
170
264
157
-16
913
-209
-8
-233
266
403
119
429
248
-147
-447
-161
10
-186
265
-108
64
265
62
-77
-145
-141
230
220
-156
393
-68
-37
-166
-99
107
190
-31
272
-280
43
203
624
-133
-143
-30
3
-97
176
59
-150
548
-53
215
-158
403
-94
-286
205
-191
260
-48
73
-29
-53
254
-137
-69
-313
-116
21
536
21
271
227
0
-11
-351
83
691
-155
-185
-65
-120
-40
-162
-60
158
299
348
-142
-324
-119
-409
521
-94
228
34
8
203
-9
-284
-357
-180
139
-107
692
283
-56
577
-144
-61
-291
9
65
-312
80
300
64
-40
38
144
26
-250
952
-151
-86
-119
33
-76
0
73
-37
-177
-292
-104
327
526
-267
-45
-38
-106
739
165
61
-45
-95
52
723
-131
-133
-13
17
64
-198
9
25
-110
93
-132
-66
36
-257
310
116
226
96
-138
-226
-217
588
-12
136
7
96
33
-79
-72
-176
-23
-72
-322
-434
5
-138
1023
523
-109
-41
-201
22
-60
-94
515
52
200
-32
-185
-155
-226
-219
84
234
312
29
728
-101
-104
-247
501
225
-24
350
354
209
-753
-222
97
-277
32
112
-148
230
-127
-34
253
-83
179
47
-27
606
278
-88
207
390
-322
-128
-324
-7
-184
9
-1
541
137
-8
-227
137
-151
-69
-169
-63
481
-65
443
121
316
-428
-47
-110
481
-95
-106
-111
-265
153
249
-49
11
-249
-166
22
131
88
-69
-108
428
-130
511
-13
369
-224
-125
-101
-249
117
208
-89
226
73
-39
282
436
554
-266
-77
-286
432
-314
-172
382
31
71
-303
-248
-106
227
230
249
405
32
27
-412
211
-97
-281
-98
539
-15
-668
21
431
198
186
730
185
509
-273
-291
42
45
-254
126
47
-70
-261
-62
160
556
-247
47
-58
72
355
30
606
-6
-147
-70
445
180
-103
48
-304
-91
-249
-26
9
272
288
69
267
-227
-114
-482
-66
91
540
150
-9
46
673
182
-83
65
79
-177
-136
-271
-167
-154
-59
-167
-205
-138
37
231
843
163
99
229
-44
96
-40
376
-62
67
-321
-144
-46
93
-131
96
201
18
-168
427
-114
-119
-46
-5
211
-167
296
90
-284
342
-86
-60
-150
-49
262
-2
512
53
204
199
-37
-251
-19
-21
368
90
67
-160
182
-52
-142
15
-27
-6
-155
-30
228
-38
37
-99
352
-75
-147
734
-194
-343
-224
-77
62
-115
-6
568
526
-263
841
-171
216
-157
24
-38
-226
-326
-270
-256
-38
762
25
279
294
-75
-41
-188
79
728
-152
-191
-122
-227
43
-125
-87
68
172
54
288
-455
-313
-216
147
-156
407
354
89
118
-163
88
-108
-310
191
-253
690
-153
-30
672
-158
-155
-221
-35
20
-46
-129
292
-1
17
163
274
72
53
765
-247
-283
-310
75
60
-287
-9
-202
-209
-271
-86
463
857
-56
-348
-128
249
312
280
139
117
-352
401
235
38
-113
-50
-14
-24
-92
-236
250
66
345
393
-48
-72
-172
-308
-232
-56
-171
484
27
-150
253
158
31
315
43
605
-194
-74
439
-148
263
-55
158
-258
93
-437
460
-112
-194
-119
-237
232
68
712
12
-22
-23
10
-39
-126
44
55
317
121
96
496
-286
-101
33
89
144
-302
111
-291
-109
499
-29
18
-206
47
66
-35
380
56
-21
213
23
-202
290
-192
259
-111
57
-298
-80
70
-14
185
-22
-73
-118
70
456
45
17
6
-79
-188
-197
127
-91
-92
25
6
39
-13
57
255
292
-239
699
-158
283
-56
5
-115
-54
-381
-218
-108
42
709
-60
231
76
-189
-14
-241
60
662
15
-184
-218
-109
76
-189
-72
8
37
395
17
-109
-196
-151
-32
-135
466
-48
-91
116
-29
-150
-195
-128
91
-8
593
-139
-64
733
-316
-162
-207
-9
245
-202
44
45
-44
140
161
49
-134
1
639
-76
-318
-115
317
9
-148
-456
-225
-144
-334
-153
539
807
-76
-326
-199
174
436
73
275
-201
-210
374
319
90
-41
117
-38
-173
-7
-155
187
-219
183
409
-514
248
-143
-160
47
-192
-119
392
-244
107
277
2
33
175
177
-162
38
-212
-142
112
-55
-54
-166
-161
34
-85
398
177
-183
-120
-230
165
88
639
-172
-94
147
-42
-159
-137
-284
47
396
294
12
925
-379
-268
-109
257
62
-249
160
-79
-202
310
-81
65
-74
16
-53
-134
353
-77
-118
297
76
-67
-81
-72
212
146
0
104
-84
260
-197
-13
56
-160
82
-72
210
-73
-192
-50
215
103
-88
-241
-65
79
-43
243
91
240
-73
37
-6
151
293
-51
29
-103
-87
74
70
-252
-111
-51
-61
266
81
-12
118
-172
166
-76
-93
397
-97
-165
-118
-187
114
-30
-13
228
-142
110
149
-17
-40
-100
164
-361
707
-157
299
115
-28
-208
-162
-135
-157
9
407
9
137
292
161
-45
149
-308
-301
-148
247
-1
-406
25
231
168
-25
296
160
448
-240
0
-4
82
-249
52
-12
24
-319
45
109
535
-179
14
-7
-92
-78
-308
521
100
-2
464
12
99
-297
387
-191
299
-322
-295
162
320
51
431
28
-51
-147
-71
-150
-255
-238
618
-254
218
257
-34
-55
13
104
-213
-51
186
-186
118
-53
79
-252
13
19
2
377
6
198
-146
-170
130
-267
479
75
-112
-22
91
36
61
4
-7
316
-99
3
137
-238
-18
175
-171
201
-190
177
-115
-272
475
-41
-51
-48
-253
93
93
532
55
179
420
-250
-72
123
-163
477
-102
42
-116
62
46
-3
-179
-102
-161
131
42
-45
83
-3
222
110
-80
-117
830
-407
-134
-467
-220
13
-88
100
783
234
-166
356
-12
204
-167
284
-85
-132
-234
-202
-272
286
240
319
275
363
-166
-56
-175
0
403
-148
0
-249
-56
-67
-123
0
179
828
-233
-41
-171
-49
-4
-448
-212
411
219
-165
-103
132
-74
200
-305
-247
48
454
94
52
699
-78
-141
-78
-315
-394
17
-346
801
-37
177
360
-23
110
-87
65
-184
-139
-9
-150
108
185
-53
141
-133
-289
174
100
326
-17
-268
276
261
207
-30
459
-45
-657
418
190
71
273
-13
132
-200
-346
0
301
57
463
396
-351
32
-312
-413
-88
-56
22
683
82
-32
56
-31
327
149
-160
422
-391
229
37
274
-37
-8
-321
-97
538
-521
763
2
36
-55
-213
30
250
384
-125
110
-46
-80
1
-5
111
-7
121
-94
79
271
-223
-52
395
-30
-31
-226
127
-77
-252
839
-259
83
-219
-454
18
60
855
467
-92
400
-97
-257
251
-249
540
-213
-58
-103
-47
13
-16
0
2
108
-166
164
-55
-173
-18
454
-47
-210
32
333
-205
-161
-71
-35
-271
92
-181
609
82
-30
174
-32
94
-164
140
-85
36
-99
30
-114
39
421
257
2
146
66
-147
-270
30
309
-60
-35
-206
-65
-22
-45
-47
121
-149
354
-62
-20
-297
123
12
-161
616
-110
-57
-156
216
-173
147
-183
-174
52
281
115
26
795
-219
-258
-235
-253
-127
68
-205
520
211
169
78
-6
59
-167
65
-109
-114
-92
-21
-67
162
50
57
-95
-180
-36
55
316
-182
-303
232
105
63
-46
395
-300
34
226
386
-116
635
-14
79
-61
-288
106
6
-280
436
316
-167
136
-254
-213
-188
-87
147
137
-132
215
-180
28
304
-430
-123
37
171
236
375
145
-97
-297
-3
-53
-90
-94
182
137
152
-116
-347
112
99
318
-265
121
-75
110
-118
-127
34
17
194
31
73
295
-210
-59
201
-45
100
33
-39
-39
-302
695
-215
1
-39
-363
-104
92
596
-73
55
300
133
12
172
-135
339
7
-3
-160
159
78
-105
-185
-25
40
230
-28
-182
15
76
-164
111
9
257
-70
135
-12
23
72
-220
126
-180
114
-84
119
104
0
-58
-79
46
-32
-41
109
-282
-179
181
3
192
244
344
-95
-40
19
-22
159
32
14
5
-46
-31
-79
-155
124
-254
332
8
271
-147
-58
30
-251
407
71
184
-98
182
-158
-147
-89
-74
0
155
133
160
485
-31
-2
-81
-366
-473
-164
374
331
-223
11
396
-24
274
389
-121
40
-305
106
-13
150
61
148
43
-78
-203
-46
66
87
-136
62
223
4
123
-279
317
-212
28
213
-76
171
13
385
-65
160
-524
170
617
-207
338
545
-408
-72
-299
-259
-163
-194
-147
966
-130
293
-104
-115
-44
-106
88
-86
86
224
504
-248
479
-32
-126
115
-64
109
-4
-116
20
176
-154
134
-32
131
-93
-9
33
-3
64
-30
-128
216
64
-176
81
125
-88
-49
113
-53
266
-158
242
26
-131
354
-305
95;