memory_initialization_radix=10;
memory_initialization_vector=

1246
-441
1475
210
-1531
-968
-390
-191
585
932
-387
-573
-63
590
-448
241
2189
-415
530
-452
-244
-99
259
-1505
64
-883
-1275
1237
-461
-104
-451
671
-1389
862
-197
-230
-999
-892
-207
-959
-1926
-820
-627
-430
634
393
637
389
-1700
217
94
54
-288
-266
684
-674
253
697
-744
-1091
-114
739
-1491
-355
523
-355
34
107
-834
-771
-21
-395
-1258
440
-162
-1283
-167
231
-7
-346
800
178
329
143
138
1217
866
418
1148
626
1414
1345
429
250
328
-64
443
1007
451
675
514
1478
-877
-594
-1229
316
-2479
-742
-381
-323
-347
291
-147
-192
397
675
23
1596
-60
-354
200
4
-691
396
-1016
338
-1165
-482
-17
-97
93
-141
-1411
478
-312
-296
-330
211
173
-378
-929
-879
-318
-703
-845
1481
-1104
368
1208
-1166
453
-195
16
-185
-619
731
-778
941
-114
-831
324
-1326
-160
-676
352
-263
-369
251
-1018
-567
-39
-1538
2
-452
-502
-1802
-7
-54
577
266
-461
648
-397
-684
1479
627
-370
-919
-547
-586
-1571
190
381
425
-96
-177
99
-316
667
-1016
-67
84
75
505
575
252
-64
-875
-470
-399
-336
-531
1465
366
483
-143
241
1644
-1372
-187
83
-286
-58
-277
56
-845
-2147
-696
-818
-496
-627
-231
-692
166
-35
-325
252
-642
264
-355
-501
504
-4
-1896
358
-467
1170
-1084
692
567
440
-622
-440
389
-1139
-22
-278
158
692
-741
5
-508
371
-254
-632
120
-196
-484
21
-1200
343
-179
-299
144
942
-299
492
151
-199
-72
108
887
63
-1044
848
418
-293
705
140
53
-1258
911
-637
177
-127
-863
148
-819
410
-582
-1090
273
720
-695
206
808
-416
-241
1137
271
735
-426
-80
619
102
958
305
-298
-416
-723
760
-907
-442
10
-852
114
-350
-710
97
-463
668
-58
-349
-594
-94
176
-385
116
-805
-891
-55
-1881
-9
-269
-862
-392
-622
-697
-220
-702
-503
-228
-1106
-17
-611
-1472
-72
157
-47
-557
-1342
-863
-627
-580
174
396
-111
-384
-208
129
-529
-91
-261
374
1059
-6
-756
179
349
-666
261
-556
230
-509
334
283
1338
-338
-477
369
-120
-440
-1083
-485
-299
-247
-405
-573
-71
-82
73
-754
-63
974
-1091
231
1231
-183
-87
178
167
-363
-760
-665
336
-1376
366
294
328
528
710
340
-85
-119
373
-122
500
217
-127
-15
940
248
-1258
297
-1232
-809
-286
-138
1309
-844
632
237
-208
-1474
-830
283
52
131
-1169
396
-449
100
984
-124
-1528
764
-816
-465
-666
270
-555
356
-375
-1025
566
231
-229
-18
-123
516
-684
65
345
228
164
282
177
-518
10
-544
-1365
-542
-212
166
-1
-512
-502
-403
-94
-718
329
-611
110
288
-292
-370
410
-853
734
-387
-251
-2883
-398
-224
-116
-546
649
-264
878
1035
347
-134
-1058
-69
442
-400
-417
-709
-831
-566
-954
-528
-963
-1299
-97
-140
-867
-382
385
-295
59
558
-154
13
484
-16
-833
-336
-67
-85
-431
-1036
518
305
862
-699
871
-515
236
98
-50
734
199
-47
-465
97
-463
101
55
-569
225
-434
-402
-788
-536
530
-1861
-769
-191
-433
546
-32
51
-175
767
-115
-203
185
-646
-604
729
-460
900
-202
-821
150
79
-639
-883
-199
48
-282
415
77
-466
-520
5
-269
-1291
1612
83
1982
-1628
256
751
-246
301
-314
-1430
-428
-883
90
-568
236
-782
657
-772
274
676
-1204
-649
-362
-431
776
117
-1165
166
-1209
-295
381
-124
-981
591
-244
-2373
-329
601
-1363
566
-462
-1010
-709
1250
14
166
-520
543
-668
-68
719
-559
-629
-43
-148
-247
-921
587
1026
-628
882
-1191
-758
52
-960
-727
425
760
-187
-393
-299
395
-2789
-578
-76
-127
95
412
-534
140
1331
-290
142
-580
87
389
-699
290
-144
-325
30
-836
-500
13
-681
-579
438
-834
271
-64
-529
-152
56
-876
-879
-777
-460
362
-217
472
-118
-353
-223
-319
857
167
605
311
449
-287
428
65
535
615
189
698
519
-144
284
365
-316
-196
-68
777
46
-359
298
-624
666
-466
-28
-16
-173
-627
310
-1765
-1260
-829
-698
-411
260
-449
1231
166
-141
-664
207
144
251
415
-647
-429
951
-1089
95
357
-195
-731
-159
-1030
-186
127
179
401
201
-46
-51
104
-262
94
612
122
-1071
-670
241
-667
-2184
-1868
-604
-695
-50
-353
1213
-505
1248
-528
-1315
371
853
-1429
-356
-124
-493
40
-749
37
464
-429
-601
-972
-30
-515
-1105
542
-650
-1140
-920
357
-1135
-346
322
-350
-574
-456
-920
225
242
-339
-2355
-494
-329
-154
490
-454
-482
-199
-1427
225
-1149
-6
-567
-407
-655
744
-1661
-672
-1070
-576
-1455
-157
-1225
313
110
-203
-678
1187
-631
13
268
-307
-175
-273
354
-274
-738
61
-730
425
-984
-193
-117
584
-208
-440
-554
-1558
-190
-309
-3014
1268
954
588
12
-158
-805
-508
-1067
790
-330
-1
419
-160
-462
-567
-84
-290
823
31
-860
-26
1257
163
-133
442
2114
-286
865
-702
94
54
-1627
-380
-495
64
-230
338
519
-76
-217
-494
116
529
-407
-261
395
-165
-1428
1501
-550
95
368
-107
898
27
-418
59
80
159
-1252
-103
30
228
231
502
-350
491
-578
542
-710
119
-465
-358
361
-377
-147
-1202
-635
-293
-1017
-850
-946
-41
-326
-665
280
287
-405
-572
-29
-71
13
56
195
220
-438
-112
586
-292
3579
-363
144
-34
-690
-205
-761
428
-459
-644
-62
436
-111
-732
-165
-1057
718
-257
266
-792
599
-533
633
-880
-591
-3
195
-370
-1273
-378
613
13
280
476
90
399
173
-158
-26
-248
-1564
-39
-584
-558
-935
137
-839
518
-259
-141
401
104
373
-673
-523
-604
-107
-425
256
-92
-611
-132
-321
77
906
824
-1690
-608
-753
-121
-705
710
13
366
-51
-1328
411
-54
1381
85
818
-252
260
574
421
-213
-650
68
-957
110
-164
104
402
-639
161
-816
-261
-537
2492
-60
321
-763
360
-52
460
-24
-643
1233
1406
1026
-375
69
406
1693
-557
-562
-119
-396
285
86
336
148
323
332
-135
196
-528
-549
406
-733
207
2
599
-877
-993
-491
-204
-416
20
-351
0
36
420
-199
-17
121
-62
-152
1423
-531
-64
391
-226
848
-1274
624
-631
516
179
207
-919
307
1194
405
-1405
-13
-680
453
452
203
212
-895
743
-122
-175
-286
-45
358
10
372
-74
-1289
101
90
-729
-596
-539
514
4
-46
348
-517
252
112
-1234
-496
-81
19
-617
205
-1140
-1160
469
-319
-1510
-584
-235
-228
-64
238
914
-109
283
650
44
477
-444
843
352
-119
-734
1015
748
-437
247
-923
516
-577
-226
-614
-806
-61
-459
-956
390
-488
-262
-222
87
-483
-1269
325
-595
439
267
-46
509
-1098
-942
-270
-650
543
-384
-1391
-171
-203
343
-249
89
-708
-235
120
228
391
-914
-2108
-5
822
-581
495
578
-1307
-88
-873
675
-391
763
-413
69
-1006
-88
-779
-1048
-803
245
-681
498
462
-1606
-146
-553
-705
204
353
-852
76
191
127
-443
580
-668
-2501
-217
-140
736
1701
-81
390
1278
-1054
630
2448
-1139
381
307
339
1316
-367
527
-112
387
-752
12
-866
931
-176
436
250
-463
-730
1438
-704
-1396
-5
1130
-990
-149
964
-138
638
-1141
78
-301
-305
136
-744
-426
-681
-1504
-163
871
45
474
-1225
16
-252
-1624
-563
347
163
-1588
1488
-904
64
-608
-612
-477
-431
431
-459
-325
104
-952
610
-531
-198
-946
248
64
-718
185
470
167
-633
-144
140
-225
-183
520
1489
864
96
445
1237
294
530
364
-1009
568
31
887
989
527
-867
-211
-18
-66
-1165
-264
-1318
410
-289
331
-383
-405
-198
160
-556
-210
39
-1371
-378
236
-244
-9
-985
-1736
-295
1216
-980
-714
-441
-684
189
-575
-9
-43
57
2
-494
204
262
-873
-578
-867
-487
-1011
-433
612
-1820
813
-629
-529
-577
-1001
-13
505
718
-842
70
-595
-817
-1114
323
272
-618
-257
386
-806
1084
-1546
-391
-116
-555
-398
-47
-1521
-760
-4
-253
-914
-293
-634
-751
-418
-811
797
284
292
-547
-2409
-1045
-295
686
719
-287
-1308
124
-405
160
691
24
-601
433
-1523
208
-466
-311
226
673
-1385
-415
-247
596
360
276
-654
-251
-535
-575
415
151
416
-265
-888
-459
391
38
-1456
-1240
641
-48
356
-1017
-13
-373
220
471
396
-587
-2433
-43
766
325
345
275
-1260
410
-89
-25
-6
-851
-53
-186
-432
168
350
435
264
-237
-780
602
-351
-558
-411
47
-910
-292
219
-444
56
-684
780
165
-66
-126
-297
-252
-249
-556
253
129
-253
-1698
432
343
100
-128
340
-297
-146
-442
-205
-876
484
238
-75
-292
-376
95
-1321
137
367
184
1008
1112
-1061
-1099
487
293
220
1036
-860
-213
214
185
369
-586
-865
15
140
-621
-646
1
287
-759
-219
-416
467
-330
242
88
301
380
-301
613
-685
-130
-480
77
235
120
-964
-686
-1002
182
-1015
-398
14
-980
447
676
-214
-192
-845
-916
-798
-329
318
-1185
70
264
-439
372
-496
-1071
487
521
-173
-174
-868
-469
-267
-137
-77
393
-1233
-309
-54
-110
-1598
-519
185
1158
-248
391
-577
129
1053
414
208
-917
-671
-105
-732
623
-111
-566
-350
-601
-1216
-32
-161
351
290
-717
-1289
815
-1221
992
-241
-716
-1553
-563
-503
-874
1656
1641
-281
317
133
18
-568
113
-610
-427
-824
940
629
665
-356
127
354
541
627
-410
-99
-2060
-102
-42
970
1414
-1245
12
-93
-112
163
-936
-503
384
-306
162
-77
-243
353
37
-306
-331
335
-230
-714
-43
-157
53
618
-663
365
743
894
786
-171
19
-456
520
63
-700
-852
-269
-165
33
-1060
-128
-584
-458
601
-386
-1131
-1053
371
-840
160
-250
-513
1102
-222
336
171
655
-808
-626
-620
429
-20
-791
-1084
-487
310
-36
-479
645
211
153
-285
452
83
-355
300
-1817
308
-307
-397
-252
-58
-914
-156
-959
-1428
1003
-1149
-28
513
-1330
194
695
-992
358
-353
-651
-416
486
-1692
593
-748
88
-766
314
222
-35
-1003
959
-552
0
505
-281
649
-408
-410
1476
-334
-855
107
64
-415
-13
321
-672
651
-284
218
-925
-37
-252
531
-832
-411
429
-588
-151
556
-1418
785
356
-125
846
-72
-426
245
-1063
758
-1306
-137
982
16
-1104
-11
-240
-492
-408
-801
-548
424
-1207
-313
278
-426
-1014
-734
1137
408
-19
-617
-911
-766
-576
-525
302
-449
13
213
-440
-257
-358
-748
-326
254
-905
-566
122
-234
677
271
413
529
520
180
40
-583
1390
1082
-104
-142
603
-988
1153
82
-534
-489
-935
575
-489
-385
-1555
-97
-619
-320
63
-68
182
-153
625
-1020
-87
737
-88
363
-20
-324
-31
-248
-666
1053
-240
364
-710
-109
-608
425
393
595
-664
-557
-1003
-1180
-1422
623
-1010
116
-658
571
-84
256
-537
-186
136
-780
-291
-73
408
608
809
-746
263
121
-1140
-840
644
412
301
308
-314
207
-108
279
-167
82
47
224
944
-18
433
-187
392
151
525
-54
432
558
58
556
-124
969
833
370
842
550
-110
112
-593
3
1045
889
-247
-545
111
53
-329
-468
160
504
-108
-76
-292
-922
-114
-928
203
24
-726
-1336
-8
-993
697
-208
-980
442
-1058
269
-458
241
-215
225
252
-589
-213
-347
372
-646
-313
745
-1351
371
622
-335
106
848
-612
313
-555
29
-1302
559
-1255
-1143
212
311
-1492
-1009
631
-731
-567
-6
210
174
-1698
140
2235
140
61
-177
-537
-2428
372
-412
409
-1146
67
-4
-422
-317
-232
233
-663
-542
-451
584
277
1145
46
297
38
235
113
-102
-242
-267
-583
1210
-259
-555
-125
266
-86
-1374
-14
550
630
468
388
-800
-321
-576
-802
528
168
-250
-961
1029
908
682
-509
-674
-234
899
37
975
9
309
-1346
-684
-560
-569
-751
958
-31
524
-536
1446
-129
220
421
-653
-703
138
-615
-56
-829
296
491
-259
522
-35
496
-1113
-737
-1109
-655
413
-237
-1034
-1362
295
-554
634
253
206
-434
109
-516
70
84
-404
-674
-1647
-452
-1309
215
506
46
273
-560
16
-610
333
-101
-877
-347
-200
357
-1249
-1168
74
690
494
-458
370
200
-861
-643
210
-1211
-445
-653
-669
-708
45
798
299
192
169
-800
-67
1349
-792
-528
-580
-209
1154
416
389
269
275
-987
74
-674
-804
-528
-201
-97
-219
-241
-816
207
-133
-89
34
321
-17
-627
-223
283
-739
406
-58
-268
-79
-245
374
-882
135
-1109
-161
-1201
-1008
191
-134
-257
169
-59
141
126
351
1516
-462
-520
1015
-87
630
-119
-820
-229
-622
121
-97
-325
215
77
-800
-558
211
-842
107
-605
332
-300
-676
437
-250
218
-3
-65
754
-154
145
-120
-238
13
576
-236
573
-367
-257
-100
998
747
-2210
-1362
171
-10
-84
-996
-771
700
-135
-456
-539
-65
-536
-224
-275
592
-128
-308
710
-126
-2411
-239
-1013
158
-41
-611
303
-323
207
-674
-618
-764
-505
-772
1066
-516
-778
391
-2
400
124
434
-218
-144
-446
14
505
453
-175
503
493
-471
-99
-1619
-85
-872
-35
482
165
-157
218
752
-937
200
547
1037
-453
254
-131
146
-819
-109
-783
288
403
-303
34
-349
-82
-335
-1174
595
-438
535
-476
131
-109
-380
-195
187
-312
620
-528
238
21
128
-703
-593
426
-742
-1767
-287
525
-269
-481
122
395
-472
-304
-774
949
-516
-1386
627
-518
-727
215
-509
-325
-439
-27
-928
-114
-148
-310
253
146
-73
-250
32
-415
-150
-911
-170
-79
-1572
-513
-583
-23
-217
-325
355
-359
763
-858
942
-233
-680
-35
-708
322
344
-199
1247
-472
-1099
61
-94
-155
-812
493
-1339
-632
-663
206
-875
293
-345
334
181
192
-126
141
-458
-147
-36
12
578
21
1382
739
-843
397
-435
-561
-1104
-16
-1074
-90
-673
0
-265
571
-1048
-660
-316
-786
-841
275
-912
-206
-741
-162
-1176
156
-809
-185
210
446
154
-232
-538
86
-771
-512
-1134
-438
177
-1034
36
407
107
-124
-481
-134
365
-2138
766
729
662
-160
-236
1299
723
1619
-1187
-714
-108
-2953
-1037
115
68
-261
-1452
-1511
-1358
-165
-994
-334
-842
-710
-173
767
420
-1126
1515
-1284
-875
380
-286
457
-1197
-680
-1875
-566
-1080
-279
-319
-425
-718
-3111
-953
-260
553
-1002
-769
323
-547
1353
-573
874
-187
292
-793
154
102
760
80
-390
-279
-343
1
294
184
-367
21
322
-156
-321
-289
-681
-274
982
-322
-161
-465
703
123
989
-783
-126
263
401
291
226
28
441
1570
-134
-690
464
303
526
-148
414
268
283
-356
-88
736
420
235
-300
-586
151
-226
864
-403
-768
-96
542
-716
-298
3
-55
-168
74
-193
70
-446
664
1054
-525
-763
841
-898
-255
243
-1563
-118
148
-421
19
-530
-650
-135
180
-600
-334
-26
-69
-512
525
-306
190
-459
-672
455
964
572
522
-1169
-679
-1065
1685
-868
952
-1595
-257
90
-1622
-1172
195
1914
771
1100
864
-144
573
-331
-403
-93
1081
-21
26
143
-1929
-363
-199
-349
-794
-204
56
-1089
-551
481
378
-14
243
-451
331
-930
657
-537
-492
434
-2548
-700
-451
-658
88
-590
113
-218
-798
851
-993
-570
-1023
314
23
-176
904
518
-1024
-933
-113
-664
290
-621
128
377
-671
427
791
23
140
-347
200
-533
422
-609
272
-919
268
-124
-314
-1009
-780
-899
167
-652
434
636
-310
248
-446
-457
520
-804
1261
-769
-182
-302
-637
667
278
-1820
-257
72
-1120
-931
266
994
69
-515
-1045
-388
308
191
-324
205
564
-356
-413
23
462
90
1285
104
-1505
183
-30
-344
-124
-146
291
-481
-891
73
-869
-547
92
234
838
-709
343
137
-74
168
-1217
-431
-192
-5
-1024
-149
-900
-277
681
-593
-47
691
-379
-136
90
-1447
-393
-748
-1095
-414
255
-351
743
666
-241
353
-954
-204
-1290
-896
248
-209
89
154
-48
-722
29
-89
-240
-816
-85
577
70
-180
-170
-516
954
113
-177
-648
-246
265
-133
282
-178
-588
47
-773
-590
-553
441
-22
-326
-419
-68
-398
-1162
297
-62
-546
173
-675
817
-31
-1131
-909
170
-509
389
577
40
-293
1087
-1063
-577
115
-532
-142
-132
-1050
4
666
-771
-507
766
-278
191
-1335
-796
-211
-540
100
-234
79
43
-1272
-1452
-21
-12
-327
-614
336
406
-266
318
-869
-233
-4
-83
-362
-605
71
-533
577
-548
-126
449
-929
-488
-503
-1317
-228
-295
128
534
-164
-362
292
-265
-1461
-1199
-657
306
-78
-1542
216
131
25
-177
165
792
-95
-615
378
1502
-1408
4
695
-159
452
204
114
-382
-1262
-591
-641
-766
-1165
8
-245
-1775
276
273
-30
1381
-3
129
-191
415
-471
-2070
-298
669
-234
-464
31
-341
-210
-160
-417
-280
1232
-237
-216
-188
-145
-55
53
-422
98
-1021
210
-425
429
-328
-228
-888
-946
272
-1693
-705
-232
117
-407
-1222
545
-362
838
-220
326
-1388
-665
1154
-64
-1277
92
-80
-666
251
10
-593
-791
101
-698
-7
168
53
-783
27
397
-1435
-210
-1064
332
-837
-331
479
-478
-12
-134
-612
-1416
501
-1454
-587
-20
236
135
131
-268
-1075
-144
-141
564
-285
336
163
535
717
-36
1060
-1199
-134
-1266
-459
-356
62
-719
-14
-168
2330
-441
267
89
94
-134
467
-215
-676
302
634
380
223
195
-646
-76
509
36
-322
422
1083
-70
-275
-788
327
-639
-569
-73
-830
-884
-213
-1649
-193
-833
-113
-153
748
-815
145
3
292
-395
-257
181
136
-724
224
-919
-624
155
-991
-1610
185
-532
-571
436
-1349
-304
-417
523
-2410
-497
-406
-778
-1227
635
-438
-832
126
-74
-1079
808
319
864
-164
-417
-1044
-941
-42
-450
235
941
845
-315
-380
349
-1440
-1818
-473
-1067
105
277
660
-910
-587
-465
128
-320
-827
-2502
-365
-513
60
133
-729
158
-320
-788
-216
-427
1189
-67
516
868
-1236
231
-153
-675
-258
-1369
-717
-416
254
297
-6
-321
-171
-985
-2113
-742
-973
1052
212
-452
37
-792
283
-23
-325
-958
-475
584
176
216
383
-489
1421
-225
247
1440
-917
-223
537
1253
-500
-1246
58
-942
-159
997
520
450
-566
1137
280
-284
-371
671
1580
158
-603
-211
164
-628
-293
-498
-213
-175
878
-489
-358
245
-867
-799
344
32
-1470
-1198
-424
1772
436
-319
178
-374
-294
-552
-1288
-302
-73
-883
-785
-322
-171
51
-267
-668
82
-1
-52
194
-322
347
-735
-1148
246
-1653
143
-2745
-910
-1539
164
-505
866
-691
-35
-642
945
-228
-424
504
-116
-770
-622
-103
-571
-267
-1450
-404
-993
-916
-588
-144
78
-639
-70
-59
-1192
-201
564
358
-404
-850
-146
-1959
466
-215
-2077
-254
-936
-171
177
-626
-1312
525
300
233
-40
207
-961
-153
-259
-5
-455
8
-1555
-563
376
220
-189
475
618
-317
-822
19
716
-349
193
143
2346
48
-217
-105
803
-633
-597
-213
-278
-637
501
-1853
130
-1078
1799
292
513
256
-375
-1816
-408
-211
-286
687
1181
488
54
603
405
-1438
-842
-467
-210
-931
1222
378
63
-186
42
169
-843
156
382
-341
153
-818
483
-795
-414
352
1967
24
-605
245
1065
-414
-15
-432
38
-133
7
-676
-256
-792
245
267
-1356
-466
-1083
373
-677
-897
471
-299
-1927
-729
-764
528
-1732
-364
-365
996
64
-396
250
-182
-473
598
-67
-1050
362
-503
-573
-332
1212
691
-1013
72
-904
548
267
224
362
11
-164
297
-492
-522
62
69
-294
-468
429
-276
-124
415
22
-76
-44
-107
25
180
-1215
428
728
-758
140
-877
-382
-534
422
-944
224
-560
-328
-142
-200
-275
-618
1536
-1028
-534
-153
-283
130
-1215
-855
69
-127
-465
508
-664
521
-80
-322
-662
-181
200
-1263
-1049
-77
-31
241
2463
257
-128
561
-479
17
-249
-10
-454
-383
-249
319
-123
-547
-390
100
-812
88
-348
593
432
202
1588
-97
-624
-473
158
-441
-1630
-1027
237
-112
73
568
849
-897
238
-179
528
2068
-9
-1036
-140
-964
55
-191
-463
-107
-1026
102
-506
-536
1348
1016
392
-720
-410
137
275
267
-293
145
-549
-399
211
204
737
-591
1114
643
-235
-409
-774
-174
13
205
-482
269
-135
255
236
249
122
168
587
-435
189
-649
-981
-1059
-17
-687
-177
-370
83
-882
398
-52
2
362
-937
-768
-86
382
-368
205
55
-204
252
-76
-1207
-806
-92
-321
-277
-1038
-1051
328
-538
870
-442
467
125
-822
373
-2556
-137
-664
-97
670
-145
-373
468
-370
-199
141
-54
-85
21
763
925
877
622
-303
431
1137
261
-694
515
-114
-108
500
-103
-697
-119
202
-5
-2581
124
-680
366
300
-356
-659
871
-97
21
-720
-953
341
255
-65
-1405
-1152
-266
-200
-785
-313
-1208
-177
-223
-74
-724
-345
-1416
-465
-1171
819
-495
424
-190
320
-448
-38
-1098
393
496
5
422
-606
-207
40
536
-1059
-642
-840
-324
143
-775
248
-87
772
-569
4
-201
-385
-277
-140
-925
184
-651
-196
20
131
-785
110
-736
-296
713
-40
-29
-601
-862
496
-120
602
441
-882
-839
927
-961
-1788
-460
-1414
-338
-2508
-296
-503
919
-1203
-241
-1016
1535
-733
-13
-997
181
1696
223
891
-1042
-88
1511
-226
1575
230
-235
837
413
1747
1331
-1063
232
862
-1303
511
414
150
648
-1443
-39
326
382
329
1179
1135
628
93
-673
-326
-238
-461
-285
465
-2408
-238
-1439
-116
-19
130
-470
877
805
69
69
32
-715
128
-340
75
-573
84
524
-1202
535
881
-949
696
-860
379
820
52
-97
-586
-466
251
-258
0
758
36
616
-27
-548
-68
1265
-1188
-696
-516
1015
309
765
309
1267
581
1509
1690
1121
587
918
1277
493
968
844
-773
-2080
514
1529
65
-306
-578
96
-214
-332
-928
210
-236
-425
-1365
-617
-445
54
-886
-690
-2296
108
70
-313
-146
967
470
671
739
-21
81
-435
-129
-225
-551
64
-290
601
-1318
-375
571
-429
-220
-585
1223
16
1358
-304
556
34
-425
-2149
-298
-311
-1507
-171
-720
-635
-1124
267
428
-1448
-481
-377
-1049
-2131
219
-1123
-542
-1610
49
385
-1262
334
-707
910
-565
-364
-407
-1492
-596
-267
528
540
197
-220
235
-147
-60
-135
562
541
-497
612
-458
886
-834
777
-588
-176
-1402
-525
881
-198
315
-871
266
273
-343
110
-497
889
-904
-286
4
-806
-595
-521
-1277
87
-410
-1327
-646
-327
608
67
169
-344
-334
967
515
1821
-1036
1160
226
-163
324
-471
8
-272
-544
-1249
-210
325
-185
111
23
241
-31
751
72
287
-669
-1425
209
74
-2142
61
-424
859
57
-706
329
931
536
-877
199
-723
776
270
251
166
550
295
-1681
339
931
180
-15
-377
-753
-306
244
722
-179
-517
-1061
466
26
-403
-289
-219
-690
-33
83
-506
136
891
-181
32
185
-268
-1048
-822
-1006
517
189
138
24
296
36
-182
643
558
-512
683
77
-693
-604
-18
571
-141
385
30
517
-600
-800
-470
-189
54
-362
104
-280
1
-516
67
334
310
-251
-708
-1165
-56
-1844
-1
584
-367
-320
-850
-14
189
341
500
-94
-481
-754
271
-101
-150
-219
113
-459
657
71
120
713
135
842
94
-584
-346
151
499
-1106
474
-327
-492
1147
83
882
-1277
-1111
-108
500
-707
-141
-883
128
-658
115
339
-1176
-677
376
67
-214
0
-875
-6
-304
-50
552
-323
-631
508
-263
-1484
-274
-1155
-764
-100
-337
452
-556
-361
271
-202
1273
-8
-862
278
-307
-1352
-252
1607
-614
615
477
683
-29
-54
554
312
-391
-940
-331
-78
214
-742
-331
-93
214
-560
-27
-405
589
344
-1150
-756
364
-830
-446
-788
942
1345
-805
-306
-62
-720
-503
-243
-1228
-78
-168
-1103
-40
-614
-463
-274
-119
-59
-106
-282
-926
-471
-522
-1067
-347
-725
116
-322
198
-1545
34
-1371
-1628
-98
742
455
60
100
-595
-604
370
-1391
258
23
86
-104
-676
428
115
-406
-855
93
-196
-480
-1911
-566
291
-443
-1172
-611
-953
-599
305
-656
-34
96
1445
291
-1269
-557
-184
-176
209
-804
680
-226
137
522
-1116
141
473
-785
90
0
-27
196
-578
-320
1392
-375
-508
83
-859
946
-664
767
-2138
286
-112
-533
-903
-262
-200
-499
119
174
-148
352
497
-1949
-77
-849
100
-1330
625
842
286
309
-338
167
-300
-420
11
-460
5
-172
-583
24
-701
-180
-22
23
430
-1261
489
-881
-413
-15
-323
1099
200
-63
-410
4
-187
-543
-391
-492
-1615
399
-159
1485
-520
-563
526
236
-147
-600
571
426
104
-342
-409
224
198
-47
143
-473
53
-302
16
-708
984
-1025
404
-281
-1111
-888
111
910
-660
1064
-75
-689
6
-892
-471
-1130
334
61
-269
-1424
185
-1117
582
-296
27
-424
-1171
-563
690
171
1175
83
-410
149
-384
-933
-250
1407
545
-50
66
102
-466
-1054
-122
151
835
-1482
-342
1033
968
-256
-436
105
-720
-154
-451
4
240
1523
1486
-101
-285
-1685
-637
-147
-247
-520
-110
-439
491
-1207
89
601
1247
-747
-523
386
224
-1074
200
-698
249
516
-185
418
246
-355
-877
-538
-415
-789
-64
97
243
-485
103
-189
-243
513
-604
-77
623
-15
-302
-137
172
876
-562
-45
-1110
-1369
714
-635
718
336
-178
-278
355
2512
171
-175
-684
-717
-319
-123
-304
391
-421
-1202
-1410
62
-1644
-347
-1755
369
8
-659
-133
-826
-70
-197
-752
470
-95
428
-285
-108
20
173
-150
104
-197
626
-676
-1016
541
132
-134
-1058
597
-601
878
-206
-200
-444
-633
-1180
996
-68
-311
1036
-2280
248
-887
37
1342
-1794
318
-1863
-1180
-91
188
329
203
-469
440
-648
-291
-456
-186
279
-680
-197
199
-1120
-722
8
719
-7
-1982
579
1462
653
1067
-940
304
-790
-1366
80
390
-563
-570
699
574
-547
878
-602
729
-427
-220
407
1182
625
-146
495
-1279
-500
-963
-1744
140
-960
-988
-467
-651
-553
540
157
-879
-862
-652
221
-194
-47
-108
119
5
-706
-366
69
767
307
135
-323
-432
69
490
907
-819
1417
-197
-955
294
258
-611
679
436
-325
154
-1279
-172
501
-1879
541
-158
1049
647
-798
-363
451
-533
-553
-78
17
60
14
-73
3516
-46
-1025
-2037
-194
153
-56
-56
-629
-160
-420
-794
76
-524
-325
-716
-976
-622
426
-306
-911
-26
335
393
-94
-1
-858
-179
110
-267
-447
4
579
1144
-869
942
155
-295
-622
76
176
3
-1262
-1371
-242
346
404
-504
-347
-341
35
1010
-1296
-1219
-773
133
-183
-91
-21
-208
223
155
23
442
673
84
-401
-141
-28
-349
51
-258
-584
204
-158
81
-876
-228
256
-328
1070
-168
-1015
-168
148
442
-613
-1457
320
-22
417
282
141
-116
-544
-496
520
-36
-591
-124
-364
245
189
-50
-327
206
-765
-27
-435
-518
252
1162
-1099
284
-688
646
556
-1182
75
-358
-942
-693
-140
-609
-7
-460
622
-541
-288
800
-233
-1142
-497
-2067
-1148
-578
5
194
502
-166
-762
-631
-90
262
-926
219
-243
626
96
-1054
-713
-103
635
-336
253
-1
-238
-311
-640
-807
-1169
332
149
304
-683
-17
-541
-486
-245
-450
594
-279
533
676
765
-176
-542
-622
301
845
-647
359
-433
-725
494
444
-591
49
-252
738
10
65
-1091
547
429
-1032
-148
-603
-78
1975
188
-488
129
345
-570
-175
-262
-711
-733
-649
-308
-211
413
-438
933
612
-746
594
-166
-89
421
-208
-265
-784
-631
219
-331
-1221
580
638
-337
-737
-20
448
-565
-957
-897
229
-767
-160
6
66
-322
194
-135
-420
-458
107
39
-588
358
-173
584
-352
-609
-450
-318
-617
-356
-795
-742
-537
727
660
-549
46
124
280
-293
-443
-117
-736
756
-620
629
-357
-1999
306
-1
426
589
270
325
-420
-918
-1175
315
214
-555
-449
-256
676
1626
617
-1069
-13
1214
-632
12
-391
574
-763
-924
-68
-298
-371
136
-940
775
-106
366
-629
-738
-1236
-342
-253
-395
61
34
-75
1001
-750
-221
-326
-28
-546
53
-1175
-791
-82
64
-777
-154
-1258
-1233
-484
1163
-55
-94
-610
197
-549
52
-231
-647
0
406
-243
543
422
-394
-67
-737
-513
255
144
302
-70
-1513
-290
-1353
327
977
227
-341
-720
-484
711
-2036
-194
-696
-138
-181
-376
-685
-357
474
290
1357
-573
1531
924
-1469
-309
1314
1677
785
-1567
-539
348
838
543
331
-1201
-481
-192
384
-220
98
900
856
1091
1155
-828
487
-26
-870
-9
-267
-996
-309
311
-1929
-1267
-599
42
-1114
-683
-1368
-31
-371
-683
-330
-347
-329
-421
145
-559
-1001
381
-473
-14
-914
-891
-57
-644
-268
157
-705
718
501
-618
-222
265
-386
324
-274
-490
198
-221
-18
1202
-471
-969
20
526
-581
-530
314
-905
1830
472
1335
2320
1320
404
-211
-418
-241
771
-292
-1389
1304
80
1140
-1040
-647
-1033
-82
-610
576
-296
-1002
482
-219
-187
177
-1460
499
-306
-407
-434
434
-1448
380
292
1396
593
393
-836
-51
-657
314
-198
-832
-145
567
-961
-10
461
-507
-289
176
686
-371
-552
-82
-1032
-524
650
349
311
-160
446
-2947
-801
558
-1159
-68
499
-535
637
-398
-296
410
-609
-282
-1222
269
-811
-679
246
-620
261
217
-1031
-333
-275
-560
84
186
-499
597
-389
1258
175
379
517
-465
-225
617
-1404
-22
-899
-586
-482
-676
58
-1082
-328
203
43
-1269
-718
161
-336
-1402
229
390
-838
86
-480
-375
-494
-1495
188
-229
-2103
-836
-388
900
-1586
1173
-549
-293
-182
335
-88
760
326
1799
707
3
-1052
295
87
267
453
-198
203
36
-130
-8
-1568
174
-172
-920
143
-290
443
-230
-491
952
-933
254
-378
489
-95
-539
259
-449
-219
-746
1155
-216
-210
32
616
173
388
-466
-63
-136
738
332
1409
-989
140
-72
292
23
-428
530
317
685
-743
665
-71
-159
-888
-104
-1671
-213
-1192
-287
2
-779
-951
-951
-1185
-391
-1073
-799
-1127
-56
558
-231
-300
523
161
-6
53
-1009
-686
71
177
-47
160
171
794
-110
182
-584
367
78
-320
120
-46
-39
-166
140
850
-459
-161
390
163
-1147
2
317
28
-183
-665
-414
211
-7
-854
-253
-233
-97
368
-461
152
-853
816
439
-744
-339
-105
-263
175
65
397
696
431
66
-361
701
-272
-47
-980
337
609
84
-478
-1194
438
-472
240
84
-433
-656
480
-1322
-187
-466
-623
-869
-573
-270
342
434
775
-657
772
-181
-664
-420
-568
-620
186
-422
77
-187
291
-1385
-729
421
-233
-30
-684
-485
226
-381
-813
-470
-114
-207
-935
-632
-474
-110
-977
444
-188
195
789
420
20
-594
1175
635
-685
-901
-1207
-278
625
10
141
-477
81
-148
212
-228
631
381
121
209
-608
99
49
-779
-204
1024
-158
-84
-705
-219
-543
436
-60
-197
1018
-1080
-167
-874
-412
131
375
321
-648
277
-1562
573
-371
-361
208
-297
548
-258
-437
-842
-751
-781
-241
86
-361
269
83
-205
-699
-772
-1456
-901
-356
-139
-218
158
-1356
-800
-176
-66
-790
-596
-660
46
-195
49
416
-762
-1216
-242
-1446
-176
-292
11
336
96
802
205
-422
-209
-527
228
295
-574
557
-177
-569
-1296
435
342
1429
392
-432
814
383
-1527
838
-371
-768
184
103
-1521
-130
-684
-328
689
218
-380
-3
-212
-434
13
998
-1557
306
666
-33
-2221
-1630
735
90
-2070
259
767
-421
366
369
-91
-200
1265
363
-1367
-218
-293
-555
688
-487
-250
400
-274
390
555
299
-1126
-641
-994
-626
113
-193
-112
-55
71
-467
-1462
-640
-635
-1354
483
146
304
-810
324
-696
-768
636
-30
-579
-777
230
-438
655
287
388
328
-462
-404
209
527
72
-114
-487
-181
639
-47
354
-345
-122
1639
-805
498
-1612
801
-862
-169
-1148
-275
-698
-462
294
530
-1317
63
-280;