memory_initialization_radix=10;
memory_initialization_vector=

3179
-1017
657
3483
-550
910
743
625
549
394
187
-442
1900
424
865
-1919
782
1371
443
1038
1510
-1173
1492
-749
-920
-352
2326
-3622
320
-251
-79
-1224
1180
-741
-2782
-2864
-963
-1739
-4714
-1364
-116
565
-1741
-679
218
2150
602
-3004
-465
2968
1993
1079
-2209
775
1927
1155
-1761
-1881
-410
-3327
2792
1032
773
550
-1537
531
-2749
-335
1449
1433
-2001
1103
542
266
491
349
248
1597
1289
-4318
2419
1956
422
576
-2338
-72
-2387
861
1874
2645
99
-376
630
-1589
-952
673
-535
1472
-886
1486
1095
2852
3877
2422
-945
130
-562
-743
-2205
1305
-1685
599
-2283
2808
-643
562
2079
-1179
-4713
1089
-33
766
-381
521
954
-1079
131
975
-2416
-904
758
-3135
2649
-2786
-13
-535
-44
228
-2903
545
-848
415
1645
-4747
-1013
-2531
1138
-1685
-2033
-1352
538
392
-688
-3369
-895
307
-3559
-741
546
-872
252
441
3250
2510
1236
-1705
563
-451
-724
-1546
-635
-2365
-1573
-821
1513
1462
-529
2100
1483
-430
47
-272
3159
-2341
-567
-1084
-402
1136
1041
-61
540
-1294
3934
2182
746
-301
-932
825
-36
1913
-280
-2620
-636
158
3745
1682
697
3110
-2710
1533
-1562
1067
1205
-1584
318
-1251
-511
3073
2772
4504
-995
302
2753
2240
-3802
1128
-1498
1931
-3331
-1022
-6748
-5198
-391
257
-1918
610
825
-438
4600
-2162
-307
-3640
-801
-1132
-2036
3628
1475
-841
57
-1601
-332
-3397
-549
3575
982
1366
-964
1137
-399
-148
-165
1486
-447
1745
317
2185
396
-2197
1924
-1240
658
921
-2051
1219
-810
670
-2025
-4174
-2876
-213
1133
1091
-35
818
2789
108
1520
4491
-183
913
-1757
-707
-1313
3177
4684
1924
-1540
-1392
-527
-1020
631
-551
-4316
1343
-66
-4720
-58
-3108
2021
-2699
-1568
-496
1085
614
-1311
731
-1679
-608
766
-394
-4190
878
743
596
-1385
-2334
73
887
-2689
1728
-1824
-17
-2097
1456
1687
114
-3032
-2268
1307
-1396
-1311
1423
-1065
624
1524
-2296
-213
1319
-1505
1799
470
618
-1633
2366
1686
-1537
49
-837
2167
2709
-976
1601
-243
-1411
265
1101
-3406
459
2313
-1889
-2531
770
-129
-648
142
1912
1073
30
-1748
1296
-124
2569
-266
-2350
2053
-469
-1494
-1477
-857
641
-531
554
-1869
-1112
898
849
2877
-1796
-428
-126
1787
-2344
-422
1860
482
4645
-134
-1046
1555
287
-554
-2253
-604
237
-2738
-2292
-673
37
1026
4108
1441
-1143
-3931
1654
91
-212
-1541
3031
618
-2229
-1712
398
-524
4275
-519
1331
-2486
836
2254
-3427
-1409
3555
-306
-3005
-3511
-507
2178
1171
-596
-567
1713
483
763
2686
-851
2383
575
2729
-879
-2096
169
-1223
-728
1877
1485
1126
472
546
3
1219
-2136
247
-2669
1478
-260
-1362
1134
1758
232
-281
4970
-4270
-943
-1092
331
1183
3603
-456
-1210
-1334
-197
-1104
1974
-2155
1908
542
-1912
-479
714
457
4953
-2525
-6000
-755
-899
1247
-709
-263
-3163
-994
2316
0
-4058
-607
-1483
1207
1221
-3010
1326
-757
-1041
-1084
2126
392
-2916
-2160
1583
-310
2231
847
1053
-1925
1480
1145
-1945
2025
-1301
-1183
-506
476
765
1006
-1266
-590
-643
-1782
1137
-4526
-963
-1085
556
-1402
-245
1353
-396
-803
-776
1340
768
358
477
3294
323
-154
-2067
1473
3584
2584
-453
-496
-1277
1780
-2210
1413
-657
-3020
-343
3483
1577
4539
-1196
-1533
-425
705
598
2204
846
-1404
-4025
1405
-2572
457
-3007
672
-1217
-11
1579
1687
-326
-128
-1231
4191
2345
-2438
-214
180
-3194
-1861
3198
-1194
829
-3666
-3830
-1042
2383
-3362
-915
108
1429
-855
-620
1147
1417
-2502
-42
-1335
556
63
3940
-1510
14
2604
-2057
-1861
166
-1484
-321
151
-1012
-2808
-811
2690
-1806
-1674
-954
-2246
-605
537
19
-3123
755
6
-1336
-1355
-1907
-647
-1513
735
-436
160
3394
4309
-1677
1057
1899
2333
-439
1205
1612
728
-2398
-841
-1376
-54
430
1098
-1958
1091
-438
1097
-56
-984
515
2465
-947
1114
-1267
3307
-531
-157
-96
3533
-6008
202
-1335
887
64
278
1524
1189
-526
831
-2012
1431
1408
1726
3752
-3357
1632
4162
350
39
1506
-2384
-3225
335
3029
1496
2296
1633
-2911
-2772
1165
-22
2080
-346
-634
-14
-291
-3863
87
-1695
-2315
1736
-1835
-889
1704
-1392
-208
4141
-535
-590
-1707
2052
-1192
986
1478
1528
-177
1538
-1069
2817
-1141
-2689
3142
625
1472
-479
976
-2658
-87
344
1665
832
-263
-733
-842
1932
347
-3717
-191
-2779
1046
-1518
-1
-5183
2789
-423
253
525
-2709
-3190
-1808
807
4676
1085
-1004
-264
982
-2620
-688
-326
-618
194
-247
4295
-1218
769
1383
-506
2253
214
1687
-1096
1859
-2244
1314
-3087
809
96
269
-2207
101
-1497
1803
345
1108
1488
-277
-2474
2136
4542
-3458
650
-2991
-1936
428
-1878
936
290
-2053
-1258
-315
-3485
-1386
45
1254
-1473
422
-5593
511
-65
-176
90
-777
-3498
-2086
1390
3701
-939
-227
194
1618
-1791
883
334
1360
-1658
-287
1766
3203
1354
-400
782
374
2369
873
-476
-519
491
5
-181
1371
-2540
526
-243
837
-1399
-1694
1734
2177
2346
-556
-3188
-4366
-1469
8193
-1066
-431
-143
3009
1202
89
-664
-1469
520
-868
-1280
-2523
2961
1420
3999
841
-2268
517
1270
-1244
1103
1926
-2417
-193
2460
6082
-2711
1840
-557
-762
365
41
-352
2289
1218
785
283
2055
1370
2306
-472
1833
2270
-1107
1438
441
-497
-1236
3047
1376
3478
1685
-227
1044
439
-1710
-9
2128
1499
-2218
-807
1579
-1626
-5206
419
-1215
740
2036
634
1989
319
646
1961
-970
-198
-1607
-3070
-992
-871
-14
552
559
-4112
738
839
2734
1440
-499
-2556
-2258
-403
514
176
-1307
-1094
-202
-374
1955
-1048
-4215
-1916
-730
-317
2300
-939
-4575
-952
1472
3607
3157
482
1038
4767
-1042
250
193
1185
-490
-274
-4237
1729
364
1102
-46
870
-1501
2129
-1156
-2815
-944
2790
510
-1699
2050
215
-2835
-542
708
135
4996
1748
662
18
-607
200
-726
3830
-1380
-1053
689
4344
-1398
401
-3388
629
-521
401
84
-3993
2233
-235
-2669
-974
-544
-453
-1864
-444
1870
-676
405
-1201
-78
-779
408
263
-670
-2385
-387
-1828
428
-1155
879
-411
4606
-1403
-857
-2481
782
2641
2584
-2065
1549
-713
138
-708
2965
369
-266
-274
-2967
-40
681
-373
-1524
1486
2073
524
-3
-21
-3598
3609
1090
1939
-1318
818
-118
-297
-1561
542
-1490
-374
868
1335
191
27
-1331
1334
242
-1241
1961
-1928
-408
-524
-2902
151
166
-3770
337
1027
-433
-1244
574
1530
1218
-220
265
-1002
2757
-2280
-448
-1198
-782
604
-1366
-900
-472
3002
282
-1338
2261
819
443
257
-787
642
-2875
-909
-2721
5613
789
-216
-232
1453
-1801
3119
-747
-123
-753
-317
1258
-48
1127
-899
-1653
-1420
-4344
-918
-8
-1392
-1316
-2131
1306
-995
1141
-680
1516
351
-1902
-428
3619
-919
2634
1324
3135
-776
-2040
121
2257
-355
-472
-4334
12
-2809
-905
-1568
-361
736
4876
-4451
307
2476
2203
-2151
372
1544
-932
-1099
1036
-2299
463
-1112
-5278
-2766
-1359
-2748
-445
420
-502
-1844
553
235
463
-2898
-1281
249
1936
1062
186
99
-22
1107
103
-105
2093
-72
-184
-243
-147
1444
5028
142
-2755
-463
2336
724
-582
1281
-3852
-149
-1329
-1069
276
3132
-2521
-1759
-789
1935
-673
-399
185
2467
-7072
3624
-1162
2037
1117
697
-1466
-71
890
1731
1593
750
2823
-1421
2613
-3583
-3014
2763
-829
137
1088
-1505
-1386
1740
856
-705
-921
1943
2184
-345
1964
1574
-1030
-2220
-920
-495
-878
1333
54
-662
228
322
77
1120
-121
-2279
-3140
1431
151
503
536
1084
-2459
558
-362
904
-721
443
-82
1339
-1583
-1280
1771
393
2782
1179
964
-2994
158
360
-545
-2063
238
-838
-296
532
-2040
-402
5544
-3801
1279
-1424
-441
-188
-789
3106
-1184
-66
-3656
1179
1758
-468
-1812
-1105
2233
998
-1201
1801
-113
-8
-1437
-3902
-2374
2759
-298
352
-3278
-897
2510
-219
1733
-1451
3622
-1916
4006
2206
767
474
-168
-1035
264
-725
148
490
330
456
-468
-2342
3083
-822
-3900
1657
2567
-2808
-273
2492
-5
-505
0
-1110
1510
78
1362
640
-1074
-2653
-759
-2195
-549
-2972
-475
-1117
-682
2695
1771
630
-3885
-405
1480
3601
1389
4343
2588
1210
99
-3849
-879
-284
-1566
-663
-4346
-775
-2274
1547
892
-165
679
-1132
-3778
-1445
1964
-2167
-872
1911
-683
287
399
-1318
2031
1681
57
-4120
-5309
724
9497
-321
1287
-214
-2550
16
726
1013
1370
535
2377
1489
1821
4243
-3799
3597
-1812
684
2231
-3394
2753
276
3332
1516
-1983
450
-1302
502
1637
3828
-674
-147
-947
764
3199
5122
-33
745
2342
-2241
-1626
724
1241
-682
-3102
1695
-344
-626
-165
-571
2313
2422
-1878
1096
1528
-95
1241
-2870
2214
1918
323
-1376
2349
-353
-6131
-1517
214
1456
-907
-2082
233
-282
743
257
-3404
1037
-2667
-2138
-378
1977
453
1025
772
-1159
588
526
189
-921
676
-1153
1421
-1491
1065
-1478
-1486
-33
-509
-1583
2354
-159
-1212
-495
1874
-94
1604
742
1385
197
-1254
850
-3190
1862
3905
6552
-1502
113
1869
-1160
-374
3970
-3844
2653
-176
-1120
-184
2355
-2812
-1891
-1318
-1536
2496
2767
75
2497
1546
-675
665
-929
781
956
3150
2614
-650
-1096
171
-62
340
667
-481
-1942
-1058
825
1712
515
1237
603
-2068
221
-49
-1919
2856
425
-2766
-1103
1304
-1475
-4614
-1551
-1564
-837
563
2292
-854
-113
179
-1068
-3652
-2390
480
-1236
950
-1664
1352
3177
3277
-1322
-1296
-1047
-569
708
3633
460
2394
-939
-49
-174
-2498
-266
182
940
525
333
3024
683
-5141
-406
-3252
-443
-926
660
2163
868
3408
410
-404
-740
-2431
-786
-285
1298
-5580
801
989
-522
-1375
1321
-2416
1495
-370
347
-125
-2318
1561
428
908
1148
-389
-1176
-110
1173
-158
-5009
1146
255
-24
-847
54
-2175
468
-1523
-195
-1053
-1467
746
-392
1051
-1090
1090
-604
-538
-673
-1328
-1760
-55
940
1175;