memory_initialization_radix=10;
memory_initialization_vector=

1355
-452
623
-57
-451
263
-1357
0
-354
-996
-130
-354
355
143
1435
-401
-352
289
907
-133
382
47
-28
-416
-932
606
-296
139
1387
-259
317
-849
-499
64
245
-639
-1546
153
773
140
-1217
-903
-736
181
-27
-480
773
-507
1098
184
-159
180
291
92
327
60
-357
828
842
3
15
97
-109
-381
-100
-1105
-334
-545
-907
-822
-43
1080
338
-962
-1604
1109
-1390
405
-690
664
234
86
-745
-404
616
-872
314
795
900
-2115
615
1067
-441
141
95
-555
1619
-863
-29
384
594
304
-346
485
1112
208
627
-1037
-391
1454
-765
412
279
639
-504
-513
91
-1694
212
978
-219
692
1189
641
-229
1082
-349
-897
648
927
-872
-575
-277
-430
989
-456
-1069
-1493
-118
352
-579
-672
789
-413
-490
-740
63
1986
-135
-485
-646
-984
161
533
-256
-1138
329
-1775
182
348
-497
-1209
-107
-1393
-489
291
-561
-1254
348
-1071
1209
584
-270
521
-304
-238
-258
1244
-1921
788
-836
259
800
-1058
-743
-213
383
-241
1003
551
332
538
-1628
1216
-650
-308
-444
-1508
696
2459
-251
-2013
-824
-388
-420
699
-321
-684
-18
-66
-158
-137
-422
-573
-1145
-116
1036
478
-1464
-152
-789
-82
2571
280
90
162
127
897
-287
-372
631
21
-554
901
1171
-327
-728
65
383
312
1476
283
187
-207
-1066
592
-774
-24
777
-779
-22
-1211
-104
-660
145
145
-1049
216
-395
237
-927
-855
-615
128
174
-60
-9
-742
-342
-647
-757
109
-1109
-1592
283
-155
609
-458
190
324
-121
464
-1603
-938
487
-475
206
1367
-1537
23
-1099
194
-1036
-21
845
534
-28
163
-2071
35
770
-740
-416
72
-321
-1081
622
-1232
-330
-664
-1199
478
129
254
-1692
426
-6
882
-350
1244
-375
-269
-286
-301
-417
-884
468
-702
-30
1436
162
-590
348
-1277
-439
1112
-39
-190
-246
1075
166
1217
604
615
-1631
-91
70
-838
-160
-186
834
-1475
-593
191
106
540
-1079
351
-197
-543
-599
568
190
59
-273
270
563
-465
-1000
94
279
-571
-443
-84
-812
-1083
-1667
-198
250
-645
-128
-574
-439
750
-491
380
471
6
-423
-138
926
-35
-316
-100
-361
286
-315
-887
-213
635
-55
-662
1064
-1028
179
262
-334
-465
-25
160
-1603
52
1350
615
-900
2312
-666
-500
-280
-72
-1233
1324
47
841
-56
47
326
-220
303
-208
-286
-1080
573
545
111
-185
1268
-598
-657
439
454
86
148
-354
1081
667
654
-650
-328
726
199
912
378
172
1433
-497
-864
-1610
-101
-101
-213
-333
440
-1088
-805
1180
-173
-897
165
-149
1125
997
1120
-78
754
93
390
-367
439
-674
1887
1559
897
1308
-751
774
-523
1133
-236
1499
1893
-1668
969
-225
610
-628
-322
1047
138
-163
-424
-440
57
-511
-90
540
-879
-1827
287
942
444
-948
212
324
-1100
602
-1993
596
614
202
662
-939
-357
-15
623
773
-543
-675
198
1117
4
548
776
-170
235
509
-267
-404
178
818
-66
-342
205
506
-334
322
818
-1225
715
118
1133
-668
151
174
781
-412
177
-31
838
-117
-12
-1267
753
940
62
-18
187
477
339
-1130
475
-202
-105
1003
1707
120
-460
222
-101
200
119
-442
166
-478
-740
-1156
1557
-124
-317
1202
-175
488
368
118
-1519
-18
49
-139
-242
780
-973
17
93
373
-310
-959
-380
-438
-995
19
-271
-1068
169
407
-320
172
17
131
-254
52
-369
-566
-810
-1110
241
1404
-279
-1166
390
866
238
-46
-218
295
-553
-99
234
-1035
-1515
-242
716
753
519
-923
-127
-342
-913
-146
-407
-1445
689
-514
223
196
1050
-921
-1437
945
1176
-649
296
122
1034
-172
-356
-142
-34
78
41
-975
192
455
332
333
-145
215
-2075
-175
-218
649
1586
1046
152
623
-509
-695
-289
-366
-269
-1465
-135
-140
736
-1415
313
367
112
288
-399
104
912
-26
-232
1771
816
343
1112
-1270
-399
176
953
693
285
-1418
1103
188
499
-278
-389
-108
365
-341
-734
-558
628
1092
-1391
359
354
1277
319
-1059
-444
1384
1245
-155
292
-1158
-423
-1141
-802
369
-2140
-692
-698
479
564
471
164
95
199
-963
-334
616
177
-918
-233
-666
-1052
-302
-428
-162
23
-181
-51
717
-1035
89
-2093
-366
-1042
-305
-2411
324
529
-1210
-471
2314
-539
-487
126
1004
-1825
798
-1028
-998
-340
414
-291
-446
624
-939
-574
-738
256
999
479
1391
-816
-719
963
407
814
405
-1497
-321
1054
-1198
117
-1996
978
-335
900
-548
574
237
1933
31
6
72
-668
427
222
-528
-501
464
943
-175
1331
-1315
270
-758
-1290
-119
-446
-406
1039
1123
-344
81
-287
789
418
-52
1366
472
-778
-592
-128
106
91
398
-827
506
-602
-415
-568
199
-892
691
-527
233
1061
-1754
106
-6
97
-709
-337
35
-1824
255
80
274
-1100
737
-1516
-626
-455
416
-624
-530
35
516
-415
-1608
1404
-333
100
1118
406
1757
82
756
-154
-1042
127
-448
209
186
-988
41
760
-248
-1394
106
501
-710
146
439
-204
-354
1324
680
791
1257
-608
130
-113
213
241
334
-540
1405
-298
-896
53
-1028
-75
-372
64
892
114
-897
691
689
-229
-575
-425
-340
542
177
108
-501
1282
722
-417
-550
-78
1166
162
351
148
-224
519
-468
-513
-1572
793
-736
-383
-452
287
520
-1600
-350
114
32
1664
-1358
-1104
1725
-530
130
379
94
-739
-534
-229
394
639
-667
1181
1012
149
-397
553
783
361
401
-163
1275
-213
-179
1446
-1379
232
689
300
-666
334
-2
795
-409
-88
500
-734
-478
-1252
0
251
1307
-111
-525
-661
193
776
869
-760
557
194
163
-585
777
-1657
-166
-106
62
-690
-302
-634
831
781
-1051
314
478
373
-1063
-187
482
-679
-357
164
-309
264
-1074
-152
1280
776
686
491
181
973
338
-556
1271
-724
1405
992
232
-138
265
449
1833
162
-11
880
419
-1423
421
-567
-103
-58
-664
670
-120
-260
-216
-254
-280
392
519
154
-508
-220
-299
635
172
699
1221
-163
-1505
176
948
-779
-107
713
49
-326
-64
-97
457
-96
-288
-120
100
-442
-23
766
812
652
1211
-1632
532
412
63
949
-323
1519
-403
-52
1339
137
454
-880
325
0
514
1249
1350
844
-109
387
-186
-1218
986
-24
-479
39
-1084
168
-997
162
628
-491
-69
-307
360
929
385
-956
-254
-178
548
-771
1601
-667
605
5
31
-1146
-2138
320
-635
892
-197
289
-1044
347
2360
-607
-531
302
25
114
-177
-33
-512
909
-555
508
128
276
-1228
-407
-365
616
-928
58
400
66
-471
-186
786
-66
120
-489
307
-193
95
617
194
122
2308
865
-687
983
-1020
680
-915
813
-1049
-999
-164
684
697
103
756
801
91
506
-111
-157
-755
-186
-352
572
597
232
-151
411
-1788
351
-749
227
1512
-648
-510
801
-1238
109
-414
-836
-166
2585
-593
848
558
393
738
234
832
-63
-300
102
150
-2250
-875
-611
-1685
-904
-480
-340
-977
138
1653
-533
667
-385
540
155
125
-1713
78
1255
426
292
-306
-596
-1127
-179
-243
205
17
-279
-375
-182
600
-234
-1492
-120
122
116
286
-383
710
-799
-1260
-20
116
1015
570
471
258
541
-549
-382
1225
-518
-15
528
-561
225
-503
226
578
-980
1829
1023
374
-38
273
1159
316
-141
994
939
455
763
1164
-467
401
-732
387
-259
-298
-676
458
-164
-1812
-138
-516
944
491
238
420
1177
-61
-1315
-14
-960
-527
85
-693
175
-56
-118
413
185
-1103
307
195
-510
619
1110
755
184
-534
218
-129
-104
58
2009
512
-560
-154
961
-509
266
364
-402
1487
618
1295
-28
-712
-98
187
-455
-626
-64
-1004
-231
-603
-988
-783
526
-659
-2890
-279
70
-1162
-230
1083
-728
1884
147
782
-415
-834
911
245
-964
67
311
878
604
481
-1459
987
-735
-328
-797
-53
845
503
-333
218
-157
54
283
70
-299
-360
-114
528
-527
600
271
-1007
-337
-950
354
-150
220
139
702
16
-175
245
370
348
-853
1131
-518
-1036
-583
1255
547
11
-203
-405
-678
319
657
409
139
868
191
-422
-428
-182
-1077
1174
-1354
107
-2213
179
-952
-296
-620
-1114
-1253
-1440
-1255
91
-1592
-138
1471
2166
209
-243
-335
552
221
563
166
-205
876
899
678
1188
274
-3090
-805
-947
399
-235
-567
103
-758
-243
92
-337
-121
-369
-569
-19
201
536
477
-323
-1527
344
603
590
-1207
561
1269
491
1145
273
-748
-117
-94
-375
-94
35
238
541
249
254
561
-136
-170
117
470
-608
-795
-310
-268
460
-1321
305
1467
-288
531
-676
-149
-1030
-186
-365
-199
17
-349
218
300
-1282
657
1111
483
-284
-260
152
-462
534
-40
-908
755
1445
-981
-419
103
6
-1127
204
218
743
-388
192
-73
326
347
220
514
653
-646
427
-1296
1506
-881
-242
624
127
-1346
-374
-805
411
1147
184
-653
658
878
612
-377
1
-392
306
-947
-665
-263
-396
224
-1261
671
1760
-831
-241
-298
86
-100
-342
-933
1199
-502
-170
-764
-266
-1136
631
-188
71
-1641
594
-2504
-216
-166
-149
-647
-150
-411
-294
-347
-580
529
-303
21
-341
-29
1538
-381
294
-877
-1871
256
896
2585
962
-190
744
-599
1611
0
-924
-396
-102
713
-717
-730
413
-410
307
732
-2079
-323
-7
235
-1278
-218
-496
-866
1117
-558
-599
-951
521
627
1817
-768
811
1356
-136
1487
757
105
-1165
-235
1044
-935
-255
669
-586
504
-804
644
108
613
-322
-635
-1513
-614
-717
312
992
36
173
319
-377
18
-450
1854
-2114
-52
2159
-1048
572
-612
72
1737
141
1104
-462
-63
-359
1155
-1216
615
-755
-833
-1844
1629
-1181
1217
-589
-220
-300
-334
-733
-164
1735
-1273
89
130
69
259
-332
-1384
-703
971
1434
-50
-913
-327
-121
-112
-279
-2963
-1356
-1377
-1403
50
-613
-865
-524
487
-14
-808
1374
373
15
479
808
225
65
-114
-264
729
-845
630
472
-749
-561
-795
-8
-174
-1658
-41
-561
-718
-35
211
-852
-664
-298
-548
-82
293
814
-41
-108
1386
-1944
-366
564
-665
-1200
-237
-687
449
301
39
1168
1113
1311
-443
1398
474
-1307
-1267
-91
-891
-1215
444
-31
-552
-442
457
-526
-9
-402
-477
762
-292
361
179
-93
857
158
-1508
566
-1281
-931
509
-1785
-1532
-2052
596
411
365
-689
526
-595
358
-117
1671
-1053
-588
-137
-89
400
32
-247
-318
-544
2005
-650
340
-213
-435
303
-1104
278
318
-803
-389
20
461
-287
-984
155
-574
796
775
-536
517
164
-241
-694
-687
629
283
1609
-369
-619
189
-561
-284
-104
1636
-257
-83
592
100
94
-303
300
554
1601
115
282
-209
-200
-60
-168
193
-650
-1468
37
-220
535
-1120
389
-156
974
-714
732
-298
-1097
228
26
208
777
-376
1035
-176
-780
-600
-374
-1662
628
-237
1692
-235
-235
-22
-229
-20
-552
378
138
-1370
-438
503
964
-120
-788
-2266
270
-220
-1210
591
883
86
208
536
687
-532
-119
-1649
49
472
-505
-1376
-1606
-170
910
-677
-588
124
-104
-43
-319
592
-1325
228
-1275
241
626
-1246
451
-429
908
1028
-224
416
-398
-65
-559
231
-897
-1083
35
-387
-402
456
533
966
389
-356
603
326
-1011
447
-326
-344
76
-243
-640
1030
264
239
-602
166
6
478
-42
-628
95
756
-411
224
808
1158
-557
-996
-286
-749
-266
-671
657
-246
245
393
214
508
423
329
-1282
313
332
66
1118
-1163
68
-236
-220
-2543
-147
-841
-458
-1515
37
959
-42
395
156
-330
-110
-819
-454
-231
-1354
-1331
2467
-359
17
-997
-920
-511
1794
4
323
132
-415
33
-1389
37
729
-566
131
105
512
-912
68
-809
1246
-957
-679
231
-361
-519
-1115
-278
-1754
-175
353
28
255
780
3
-202
-90
264
-157
713
-227
-13
-2449
-703
1246
136
137
-290
-867
-175
368
-111
511
379
36
-431
-137
-103
-480
280
-1912
-950
-469
-837
1123
-645
-136
-547
1444
-90
637
463
1014
-329
-127
706
1037
437
1470
-183
-1129
1426
83
510
86
-774
-1020
-130
-237
255
1430
739
154
-95
342
41
296
82
-1143
-436
-396
1567
-292
-342
-95
858
524
337
-628
-346
-421
-1018
330
510
-596
-954
-529
81
-292
254
-2
612
-131
2248
168
81
-505
474
573
-61
-241
500
-183
432
360
52
45
-892
618
552
-85
-791
-349
-1254
551
-1069
1998
-969
801
-151
241
-1159
-378
-530
-753
305
-809
-243
370
-378
-875
-241
1143
-135
-644
1557
-119
-1137
-882
2023
164
-975
761
740
-13
1065
-249
-363
-247
235
-134
-948
-630
-176
979
30
808
-503
-432
430
1940
-333
106
900
2001
-392
-617
-421
-403
-1338
-101
-100
-1321
-531
-1096
407
-728
256
-483
-565
34
-420
-511
-656
-687
-145
-980
71
1360
-16
-1069
1329
-439
218
-197
-337
-607
-180
-532
224
700
685
1187
230
-1011
-523
-787
-555
-629
4
143
-1029
-846
-1865
562
-486
-220
-1006
-652
976
1601
-228
-1141
1145
463
4
-174
1504
72
-500
-686
14
784
-742
-127
568
-22
-1345
683
151
-279
572
405
558
-409
1742
-658
47
311
676
1266
-400
-2362
-1023
83
-145
-871
524
118
297
-811
117
-288
-7
868
-992
-198
-1036
-1140
-266
242
-430
102
474
-56
-399
-41
223
619
-214
248
-276
-1
-385
-96
129
-266
-288
87
522
24
-377
-861
833
-290
-100
-43
-785
-648
-1133
1
-177
370
-227
-632
-1266
-20
-65
153
-1179
1594
-1453
-1287
-16
367
1039
1110
-631
123
1383
1374
312
-422
168
-1156
-814
-614
1031
487
-351
67
-43
341
-818
-1174
-347
-364
-768
200
-644
538
663
458
317
512
-241
216
-489
-158
-155
-1702
-1517
908
948
-523
-1254
-102
-316
1454
1412
123
150
-941
327
-1421
197
-310
-856
546
-299
-670
-211
-572
406
527
-427
-471
114
-121
-338
377
18
544
-182
427
740
-335
-579
-618
-271
395
-447
-220
37
-624
912
-24
864
-577
94
-702
-1053
-698
1126
514
-1182
-845
370
-365
580
-777
35
156
137
-203
-209
318
267
-292
-246
39
-1199
-247
-656
-727
-392
-98
-594
-925
70
-2263
142
-1202
-59
-359
-575
699
941
-212
16
777
297
-430
153
296
169
-1200
-1922
672
1091
-458
-747
-300
-766
690
1014
-297
485
673
-57
-1193
574
577
-1086
-652
500
166
21
-93
725
-239
-401
-822
276
954
-161
-15
-122
-382
-807
656
743
244
498
-398
231
467
-575
-310
-535
-121
-354
-265
-423
26
-46
-316
-276
253
-425
-347
-191
545
-195
-954
236
-1324
370
-1228
28
-851
15
1481
391
521
1190
524
-539
-620
-386
-636
-347
-201
-337
-117
-980
561
-76
1137
-107
191
-559
-443
-274
-1145
-29
356
186
-900
-525
-278
-256
319
336
601
382
220
-80
785
-655
561
-999
-957
598
1773
-1107
-286
562
-404
309
91
643
-206
-347
576
75
533
-275
-614
-1267
-804
178
-463
-126
-401
-136
-1691
-261
-643
-512
-1006
-103
-466
300
-168
-399
847
-201
13
331
-564
-854
-1014
204
441
-23
114
-1306
-319
50
811
-314
-923
222
1186
1159
-1359
457
-365
600
-230
-1176
-151
-344
-1575
575
-417
-193
2207
54
-465
358
184
-492
619
-58
-53
316
1023
989
-370
-116
-32
69
814
-117
696
-267
-795
-13
1925
173
577
-738
763
-10
-1050
113
-1211
-1023
505
-611
473
-125
-1073
-207
1744
-24
-131
808
-1086
-68
338
414
-364
-2574
150
453
-853
-41
124
119
782
1024
22
774
15
531
-718
452
644
-1399
267
-325
201
299
372
350
-1453
-1354
403
-500
-676
294
-492
-1104
537
-161
-330
78
-56
1082
-2311
-1902
-1214
761
-1072
541
796
-324
404
343
-1309
359
-146
237
-777
-1059
1181
571
-176
-14
108
453
122
1130
2115
-651
-643
1113
-942
-572
-1255
-938
282
-169
1933
503
-372
-1168
-2663
-946
837
-185
-103
-354
115
-735
182
-216
-388
-1629
-814
851
-1293
-1364
-764
639
-109
543
224
-690
215
299
-407
-60
371
-433
864
-114
478
-70
-1111
-440
355
161
314
-690
-202
-509
116
34
-701
101
1090
-274
-1217
-492
413
-212
229
548
64
-1293
457
-34
-602
371
571
-994
-1452
1230
-277
-394
-336
302
752
450
-1013
848
-693
433
-543
592
595
197
613
289
-270
-513
-534
527
21
-507
-174
-733
-985
-857
-1078
-231
-627
-879
-261
549
-494
-161
-390
1233
978
-733
387
719
-817
-114
-77
-420
294
-221
109
-437
-395
-173
-594
643
-10
938
-4
544
-54
-697
-985
-1502
296
-1006
1086
-279
-170
-366
-190
-197
-33
-636
-394
134
-805
-30
-587
375
-1000
329
519
431
-1216
-440
319
-273
-301
258
393
-363
-592
-159
356
1318
-2017
-76
-437
-40
-360
-143
-814
-635
-1327
714
-570
227
1336
-362
-2344
313
496
494
62
-314
-408
268
-520
588
-618
230
341
-1040
345
282
285
-441
207
-40
-28
-82
-454
653
-167
42
-4
-73
-351
-512
-624
887
-668
264
-158
-225
43
-223
-91
-1147
-123
-1520
543
535
-426
333
-181
873
-53
438
-1272
632
-1039
779
94
-451
37
-533
-1325
240
524
-422
655
-214
-359
812
-299
453
15
-617
468
-26
737
-520
207
-1037
384
-178
-210
95
-934
169
-229
-731
986
1462
-473
-32
-594
1122
-800
-414
-767
255
300
632
85
780
-1514
-599
93
153
497
726
-157
69
-1009
141
651
308
-510
-288
49
-621
-641
-1040
1555
-807
-89
-385
325
-90
166
537
483
-159
1521
-2037
442
272
-408
696
162
440
-200
476
424
-313
-190
405
-394
-176
346
-668
632
-94
-2895
38
-1482
443
-291
-1375
376
-160
382
714
-560
80
855
255
83
273
-38
419
408
-1202
429
-194
-277
260
351
611
-101
818
364
-837
-825
-58
-559
444
208
664
-493
-538
567
-1476
1965
13
-308
224
-762
810
-332
809
-1749
-777
-679
-563
59
-381
-998
-32
-413
-329
349
112
654
-39
-702
-47
-804
-263
1939
-145
1191
1512
763
908
-5
533
183
-395
-581
467
-314
188
-963
-554
-632
-140
75
470
-1101
-348
-581
-412
-721
3019
-1144
496
-185
-58
508
-321
723
227
-718
1280
-95
1096
-461
38
308
379
1013
13
-10
-1119
-263
-748
-243
-554
-1021
339
162
548
543
-235
437
719
-890
-111
-646
-522
-2075
-963
-1779
784
-326
-1052
534
-459
363
151
36
-1783
553
-308
832
300
-678
-99
1364
-1566
-1010
-359
448
-208
259
215
-312
694
-1617
-305
-390
-201
-876
-694
918
-793
205
-753
244
-634
-874
536
-267
-39
-34
-1
-1020
69
1662
-537
290
550
-667
882
-378
-147
175
-213
521
711
-70
1008
299
60
966
-49
1885
1368
236
899
-279
-493
-37
183
393
-875
-405
-701
-121
-361
-1314
-943
-78
-773
262
-440
-1527
64
-1421
-356
-725
112
-53
250
-504
492
1603
1471
-953
1176
-650
1014
-1158
-937
-144
-627
656
-278
-212
611
782
-33
-940
-1912
287
261
-145
-117
-547
-1232
-347
-781
1493
855
963
-1966
-659
694
-874
968
-937
-200
-641
-142
1122
-363
-543
187
-1098
-2358
-202
449
-1059
-321
188
295
-680
272
282
-1545
207
-834
136
250
-324
-494
87
-180
-617
-392
-299
953
-1663
-1037
172
28
-638
1004
201
141
361
-256
-422
-199
1131
477
551
-211
787
196
-134
-581
-663
346
1409
524
136
121
250
-49
-253
-586
-461
-978
-443
-175
12
-853
766
407
-671
72
-836
-470
-937
-729
-289
-100
-567
908
407
-325
-229
-664
376
389
617
-54
-752
-24
227
76
-2008
-521
-1115
-1710
-761
160
-1002
-423
151
168
659
266
-589
735
-712
638
-319
196
204
-261
1509
1169
-47
-456
-610
-949
-775
-309
728
358
-968
17
-671
1133
-150
-461
915
-541
928
-103
-313
-1277
117
-660
449
-972
502
895
38
294
388
-126
8
-472
318
-487
429
-911
801
55
-234
-78
-553
-128
903
-145
128
-53
-285
-639
-153
134
35
497
-352
80
-374
-63
-584
-127
-44
295
1043
10
389
-727
-855
-244
-94
-10
477
90
294
-400
-1079
-67
-850
63
-592
-1739
-722
81
-260
789
613
97
1038
-61
-245
-917
961
646
-1380
-458
376
-375
441
-338
649
-1317
213
-404
-434
1082
-180
82
616
-540
967
-45
-2168
226
-824
-1304
-122
-644
-506
-1072
63
869
158
-326
-235
162
-781
344
1000
113
173
680
-497
-1857
-300
-611
-23
45
113
-934
864
-506
-1213
346
-1844
-1826
-1344
-277
-407
94
-583
504
358
-300
-793
332
675
-399
-1836
-92
991
101
888
-337
-503
652
-107
215
359
-258
-23
-1580
1463
-50
459
-636
333
-242
27
-93
355
-1243
-176
1183
-1738
104
-489
-164
-1286
-310
-374
-309
183
-65
-924
43
246
-403
565
73
511
483
-109
1327
-146
1131
134
-674
84
-314
1230
-733
-449
919
-532
830
376
340
-619
-588
-924
100
-757
-32
-381
-73
320
1220
563
603
-816
367
-1383
257
322
-1732
233
-925
-1010
573
535
881
307
314
-923
-554
-1833
1506
-699
-585
266
839
-384
3131
-38
-706
-568
-707
162
-1306
272
-425
-567
-342
-185
-159
-183
-117
-515
-159
1116
1216
-1724
-147
-2028
432
-674
-2619
264
316
382
499
-225
-62
-691
17
-622
-364
630
-118
-833
-477
646
-127
-657
-339
-242
351
-1259
1679
-724
-186
-445
444
1019
1241
-306
107
-378
991
-1176
83
506
720
1306
374
-833
80
902
-517
-78
-426
-1396
-1208
-528
732
-1197
96
392
-374
660
-378
-155
-371
643
-666
965
826
-965
-661
245
-265
-1624
2114
-215
-196
-694
-976
-288
734
208
-6
196
684
82
-333
-627
294
-509
-917
5
-826
-534
-70
-1373
605
-834
256
1260
861
1122
87
-693
118
-2162
176
-354
410
-718
-182
814
-272
75
818
-1286
-1494
-435
166
-127
-272
-187
-834
27
1117
-427
1043
950
-557
190
-130
-472
-195
455
953
762
1013
-151
682
-787
57
379
392
1122
-163
-194
-213
-78
169
-345
-181
-57
189
206
-593
97
-864
306
508
486
566
-206
-203
-3
755
90
-59
-225
-1233
-38
-473
492
-261
515
202
-323
-1017
177
883
-1088
-382
-435
446
615
114
551
333
-948
405
435
-835
-686
363
86
187
240
-871
-1703
2179
-1032
559
849
-693
-77
483
690
-135
-699
-618
226
-102
-1759
-336
-304
-128
619
-478
16
-1365
43
-857
-790
-449
-1165
-537
-864
81
703
181
1704
601
-425
39
-1856
-565
366
-50
-546
730
819
-140
182
-393
162
-1417
99
-135
-1362
166
-318
-532
-466
241
-317
-580
129
-1209
104
876
-548
376
40
489
717
793
-1098
366
-698
-99
113
-62
1029
534
231
-23
178
-816
-961
-851
-253
277
110
310
140
351
337
-971
585
197
1333
-1398
-52
-130
-354
466
713
103
225
-211
-690
15
701
444
929
-668
-347
842
403
-1068
946
-620
697
-296
-201
-68
690
-33
-11
-913
-73
456
777
807
682
9
-349
-56
-474
-278
-1445
-92
560
227
187
95
326
-451
-223
147
1340
-652
-748
625
-395
-1105
-464
-902
255
-144
-224
946
285
-443
-1137
-226
-749
-1200
885
-1285
1272
105
-1402
185
68
44
70
744
1385
-2504
135
1682
778
-730
-577
-372
-773
-144
18
-586
1145
621
225
386
277
-466
-792
713
397
-1014
-751
-584
-214
-932
63
1120
-76
340
-954
885
2010
-347
-1156
-336
-530
-866
144
1981
-628
1569
872
83
-915
158
-677
674
-162
-50
1003
196
46
108
-1161
1038
525
-1210
-307
557
-757
337
-871
282
393
206
303
-186
-485
-1450
-378
-587
654
-894
-54
245
-1138
299
354
1376
-85
1933
267
-421
473
97
359
-1274
-770
1022
-447
-116
512
520
18
130
-446
-911
-263
791
-104
-848
246
-6
-285
-1214
2407
-477
529
-407
698
-1251
-1962
-700
2335
132
228
207
661
-682
-2221
-768
786
322
273
411
1158
252
-1248
963
1289
518
-643
-181
-745
-146
-265
-646
0
-496
-837
241
153
812
284
148
-1779
-1025
-1184
96
-602
632
1211
1778
666
-1145
-458
-93
89
-885
372
324
-324
-323
-1745
128
-93
688
1112
-1293
640
-315
336
-895
-691
533
-542
353
-205
-811
-1438
-98
-1010
604
-340
1251
2001
-495
103
-617
85
236
1362
-71
359
-1467
-394
790
223
383
-656
-553
-915
-976
625
211
-562
57
1116
-505
406
252
-756
-113
2492
138
-744
714
998
-660
-700
22
1080
48
-73
1058
1433
-1390
-396
-365
92
-65
1879
-357
-241
1048
-250
-1454
1075
-521
2459
-697
-209
-1516
477
331
-1231
-173
742
-1064
202
-46
-717
-712
-127
-734
-243
-318
-165
-1337
-1011
-127
445
770
-842
-1406
134
387
53
-472
850
-50
-121
-86
57
-1183
-373
52
233
-1174
-910
-402
1009
625
-640
345
-316
-1075
-702
-571
-158
152
840
189
582
-530
-125
-108
-73
-1051
-1275
-475
635
360
242
-188
549
-315
-856
-279
1390
700
-1066
-459
530
-7
-701
-207
355
361
-376
-175
-383
-237
379
-1061
10
251
1431
-605
-190
608
735
-242
372
-360
-734
526
675
682
-634
-325
-1230
204
-930
-317
-966
-44
375
222
-1678
597
2121
-834
93
1495
712
-208
-1552
148
-748
-175
-152
872
-228
23
400
-654
-844
315
912
485
388
-347
231
-39
624
-1061
965
667
-312
417
-103
496
-1249
753
-226
335
704
11
514
-1024
-894
271
471
-553
-241
-279
-170
202
941
1510
1180
-279
-12
-438
405
-553
-625
571
355
-977
-396
936
-1385
-223
72
-706
646
837
-899
-564
-47
155
562
-1287
-673
631
-47
-9
139
-490
-375
-281
445
585
221
-1167
-1689
-349
-297
-590
-66
-608
565
1283
-239
-528
1052
466
438
776
27
-1165
-830
-92
-279
371
873
-509
-1043
533
-1579
139
539
248
44
-1292
-429
-911
651
1818
1184
718
-1293
497
590
-99
570
371
85
-611
155
239
416
564
708
-558
-379
-409
263
493
-947
352
-670
243
159
893
-1237
-2334
222
697
-1772
-176
-481
-964
-343
624
1042
898
-919
-609
-19
97
-264
-594
273
-447
1303
154
61
-78
-586
-495
552
-361
-539
195
258
841
147
1328
129
-287
670
-277
-953
180
1094
-12
-402
-926
-1165
724
69
-942
142
1089
-477
-396
-674
2050
-569
-125
1022
799
-869
-314
87
-849
-1643
-753
-406
-321
-364
-240
476
-713
52
-1482
-275
-1769
81
-630
-131
-490
-749
-878
299
-221
-438
-1096
351
1113
110
-436
-545
-1633
993
349
-49
176
-1073
-16
107
-161
-180
216
721
-773
-742
-120
1812
436
-683
63
-33
-569
660
1483
515
-175
281
-890
49
862
686
602
845
-308
-439
241
209
-1046
372
498
1736
452
89
729
-1964
45
-270
-1381
-1056
-116
359
696
-852
-1833
288
517
-97
-99
-42
277
-652
302
-541
-805
-473
184
966
1450
-306
-1051
-166
-1473
-480
386
693
336
1581
-1269
-1918
-39
-146
-747
-17
946
-262
-1056
225
-1306
229
-496
223
-38
-43
521
-459
-163
-422
-266
120
-1127
-417
-988
-492
-346
-847
971
731
1030
-1145
-1618
-402
-408
40
-903
-1006
833
-248
-360
-344
379
-678
-917
832
-129
-488
-395
-192
336
344
1202
-1894
589
758
687
-1785
35
-746
162
622
-462
-159
613
418
1210
-1484
-581
-325
-700
-366
-226
256
-595
51
847
691
-1171
952
-549
-1399
-169
-416
749
-98
-117
637
1019
383
285
35
-19
1653
905
-915
-387
-256
677
-959
-495
-171
801
232
-381
-1208
163
520
609
-30
584
-496
372
-1254
253
740
-2832
-647
517
2
-1005
-127
30
-1236
889
726
-417
-675
-419
454
-1445
-556
94
-612
-109
-1371
1298
370
-703
1807
-528
1058
364
-229
-970
817
-145
-47
565
78
-305
-878
46
125
93
-409
-316
492
395
-1539
102
-366
519
-659
1355
457
205
-1180
427
-355
339
238
-9
901
64
-138
-716
-328
-414
294
338
-116
393
952
1166
384
162
-974
-660
616
33
-64
-629
487
1224
13
-44
-1044
-11
-778
-793
83
79
16
1565
513
946
34
-282
-1067
-344
-496
-547
275
220
-404
751
-1089
-319
977
497
-636
-368
2867
-453
453
21
344
-370
-1101
1251
460
-437
1878
64
-171
-37
120
-797
-187
-530
-475
514
52
-138
-710
726
-629
-435
-31
-498
549
664
63
1304
89
-213
-608
-1243
267
322
953
-490
-286
-552
-293
-513
1091
666
-692
-96
354
308
-376
-653
-579
-1426
-220
-546
512
955
-809
-567
533
-13
314
25
878
-388
387
-438
1541
-716
-107
611
318
163
-1220
-220
588
397
52
-323
-506
-213
610
-68
1799
-453
313
-793
189
273
223
-65
109
-696
-554
455
-110
577
-590
-782
474
935
-1220
-542
-354
-358
619
-352
-388
315
463
1155
-65
-376
708
559
-290
-770
64
-1018
857
-690
-566
384
1677
705
-68
-609
666
-940
-881
305
-210
273
862
466
-329
-164
618
-1667
353
490
-685
-325
-330
-420
-64
129
-1191
-806
-255
-263
-37
163
992
-601
-471
51
-1201
-1307
577
-494
256
65
648
707
45
309
-170
869
-832
-645
860
-552
715
321
-856
-1599
1425
-278
49
258
31
-949
296
-423
-449
-79
-657
-21
566
-1094
-1709
-277
29
-918
-1112
-103
324
534
-1044
83
54
373
278
1465
114
203
-307
711
-452
3
286
621
-105
-993
-1715
-209
587
1882
-1457
-499
407
156
1249
-30
1259
870
1065
-804
324
272
786
-314
-449
-1075
444
-7
-1160
-109
734
-647
22
760
771
-658
-189
-511
951
1511
-222
-520
358
299
149
408
-378
286
1
1138
792
436
-498
-833
-662
246
883
-874
-800
585
350
-2196
1173
-1467
-904
700
852
781
858
-492
-367
-527
-234
374
-983
-1513
345
94
-809
-516
-763
-822
-1150
-179
646
553
-1207
-1442
126
-580
487
666
-68
-206
-502
-1486
-277
-289
-239
829
789
851
550
386
-647
-132
322
207
-1621
407
291
-603
-6
230
533
-1404
-521
190
-711
66
-848
27
-128
-711
325
-562
567
-251
-513
288
-12
-245
-261
-76
310
758
265
925
393
-1553
989
628
1029
-377
-167
936
234
-458
320
592
157
-405
205
2
-161
-259
-1763
-427
851
-1165
-253
160
777
636
432
-702
1073
209
-450
643
485
-65
422
-155
227
-540
-368
745
410
-332
-492
245
147
-106
-255
-191
-68
-815
262
-2503
536
486
280
196
-665
-781
1221
-292
-522
-837
1067
772
-92
-195
1675
583
2274
-1139
430
-88
-39
-703
494
593
711
-910
35
1271
-1003
-596
-1110
-1774
1986
-209
407
-1548
-541
76
489
-767
-315
105
448
130
-405
530
93
31
189
-660
587
-291
-276
454
610
-36
89
-85
745
-866
671
62
611
1417
657
1325
-467
833
-938
-383
184
-144
-40
-118
-88
69
-1085
-329
109
966
300
787
-607
221
566
-1313
-372
310
-872
521
-510
921
188
424
422
-141
-928
-725
717
-246
190
-86
370
-651
-13
-353
85
166
79
236
-238
-425
-540
-430
-1041
-588
-1426
417
490
127
-1497
-95
320
-933
922
104
326
282
-913
410
-802
-374
-822
-711
-124
303
-297
-290
-346
966
-475
-394
289
-170
1173
-1361
844
662
-549
272
-514
-830
-653
-542
-90
281
-407
-420
620
-287
38
345
-472
-383
-1055
152
-346
793
191
543
40
-531
370
-962
-225
372
175
-433
-290
538
235
513
-68
423
-753
700
-459
251
-368
-666
-99
-54
697
-891
-58
209
439
-807
-14
12
284
-602
269
259
-486
884
942
555
112
1721
-46
1017
686
-316
434
535
138
628
429
1436
-518
376
373
-1097
-171
-140
1586
-2635
-560
-627
15
-344
208
505
-460
-125
266
331
349
-1337
-669
-1372
-65
-37
726
-51
309
115
-135
444
-263
-1428
-102
-1132
1307
1120
512
-587
-388
-1184
352
-2035
164
79
-132
-757
93
-753
-1136
561
1089
-711
-786
-376
412
-1018
-537
1033
-428
-952
-1144
-453
-1100
-475
150
-952
1349
421
-213
-6
-327
1521
-146
-318
-959
-2137
-828
-1609
-53
-641
1280
-2286
342
338
-231
-230
703
-1589
277
1972
-99
624
409
576
-3
-623
118
175
125
-197
440
-154
1647
-406
78
-281
-520
846
67
518
-539
-386
541
543
315
-1077
1666
-102
-1340
1080
100
906
482
867
-75
450
-41
1257
-959
-173
173
989
741
-268
2150
142
-316
-1359
-1889
-112
-2014
1321
-390
1416
245
-2288
481
-1166
218
392
979
109
37
-495
1297
238
-709
-743
-1477
-1424
43
1547
214
172
476
-637
-545
-112
-564
-2053
598
-1265
-211
79
-701
-1054
-367
773
-688
-105
288
-154
-611
-1856
972
-261
-756
118
-75
129
60
78
-602
-208
309
-657
-182
89
1322
-189
359
-168
8
172
-989
-490
-646
170
-70
548
178
-228
-873
-559
596
807
30
346
-949
-97
392
-304
-1140
-1041
222
167
-54
-502
537
-642
-1007
539
-536
128
1179
-367
-624
343
846
-227
-661
-922
-1005
-195
-159
-1345
-645
-154
359
923
-121
-21
-86
-813
460
-1056
147
-312
34
483
197
250
369
875
718
467
-806
75
145
810
-2807
-736
1605
-16
-322
228
-730
1339
191
385
504
1174
484
-228
-1028
148
-133
130
-271
-329
173
-1556
129
-931
640
-268
365
-852
403
1458
275
740
411
-787
275
-260
290
-323
-42
1148
47
702
-446
505
438
-198
188
842
99
391
-300
306
104
-225
-127
-164
508
411
1431
-1087
-559
-1610
-542
453
994
475
680
441
-785
1185
113
-769
-433
-100
96
-790
-345
-316
160
3
365
0
-105
-1043
-517
-1002
567
161
1030
-691
518
-280
-58
-271
1522
-110
-36
-42
-84
1333
-1446
-1017
-1380
-824
-1463
455
359
-565
-19
-669
549
577
-29
-136
-560
-27
-560
-1140
-149
1635
-149
-827
761
-457
-631
-682
596
380
-1521
-339
1111
-367
-249
-30
-1972
1147
951
782
-473
-3
1165
473
-932
306
-479
128
431
-643
1268
-301
768
739
168
-849
-146
307
108
-500
407
-787
34
-495
50
-96
-1276
-13
249
-378
-338
1077
-406
201
157
-161
-220
717
-857
-25
53
-443
-151
575
754
958
-458
-765
506
906
-709
-225
-207
-220
-856
-214
-1038
640
743
387
-111
98
-1253
-1833
231
-1176
40
-990
-616
-1119
293
-266
749
433
240
-385
-1412
147
800
893
-1639
869
-47
44
592
-392
-603
-1556
-313
-2056
-822
-415
987
111
-292
1148
835
-322
1569
863
1153
209
-238
-383
-598
459
-940
-423
698
-139
-1013
1080
-1049
-311
-2120
-431
-371
-643
-372
511
-40
-1574
749
-1146
1056
545
461
-280
-647
-276
50
634
165
-1249
-791
776
-553
-568
-2957
741
22
-1280
213
746
-1339
1725
-393
319
185
-98
-564
-158
-63
-428
13
-1062
381
888
-165
657
-397
206
1125
592
-1495
64
-1565
-677
-891
-150
-1295
-33
-284
119
508
397
1022
644
37
330
836
-304
271
-947
426
155
321
394
188
399
-626
-186
-149
-19
155
-16
-706
566
-759
-416
688
261
-131
-88
-312
901
84
-197
-422
509
-1310
-628
489
228
225
481
593
-561
109
309
-373
134
677
177
-779
-539
-525
1178
-214
220
245
-99
685
-479
165
1047
353
-593
318
1099
341
-1223
-31
285
-913
1808
1196
978
-502
285
-350
-1005
183
564
-461
52
-467
337
-1193
454
-1120
-1991
-167
-230
-1001
132
6
-61
-759
544
-611
-518
-594
88
-637
-1156
-26
-595
61
-318
610
787
24
-361
-2841
-618
252
748
21
87
-799
-265
-1041
-1443
-2013
1094
-46
-1317
-1101
785
-581
206
45
336
-579
-862
419
297
21
-124
244
1488
-992
-120
118
762
-903
40
474
391
-1112
99
-1716
-16
-658
-69
8
-99
-95
-868
-387
-536
-524
3
1504
-195
-369
-71
456
489
-293
-1050
-1418
-317
1947
-1181
373
-1104
-2145
272
84
-925
827
315
-1402
-685
-524
-753
180
-466
-1293
-2256
838
171
-118
327
0
-617
-622
1500
567
48
430
-861
127
410
984
808
-558
1125
448
44
-29
139
222
-118
193
230
843
-114
553
-1577
-758
416
-455
-861
-767
869
-400
393
-70
441
-42
-385
-618
-126
133
-531
324
-715
-290
30
-900
105
707
-419
279
-235
67
-236
504
296
109
-975
303
-83
177
-70
-472
-570
-315
236
546
-509
-457
1123
407
47
-872
320
-290
-1439
624
845
-1390
482
589
-846
-137
354
-1578
-920
-781
-211
164
170
-58
-1266
300
756
-234
-1259
1016
-646
-1820
1150
-706
60
-526
954
-286
-905
205
-1304
-163
-73
894
-77
-1577
444
670
-528
1719
787
340
250
-728
-38
-1187
364
-792
-237
-304
256
-1117
-80
878
1489
999
625
-627
1487
-163
-206
-739
308
-131
2
-1490
-211
-1963
-792
206
-129
636
-503
950
739
-108
-363
1105
1171
-164
925
223
425
38
-1512
-309
190
158
356
-1112
-1130
-1271
-966
-27
1872
-808
215
-901
-626
-598
-269
130
452
146
-341
154
-514
-784
732
266
140
557
487
-205
-1258
-1015
692
-1761
1146
-1018
-523
382
416
-1133
-178
-1264
-2472
-260
-1489
104
-565
-76
-81
59
-27
892
270
1094
362
-77
-5
-476
-351
-1164
-124
291
203
-521
-372
730
410
-1701
98
-715
352
-487
-183
546
-386
3
40
256
-113
-620
-1020
181
-1098
-1269
-446
290
-361
879
86
-143
-450
-75
-302
507
2449
-56
221
-734
75
321
-22
132
269
522
-33
-158
1212
-675
-319
249
-92
1037
-79
-553
-322
782
539
505
619
109
-1331
545
-914
-344
-465
-635
-1272
-289
-968
-308
-1490
494
426
176
-104
352
-30
178
-674
-607
-292
-669
-370
-1064
-854
-300
565
368
435
47
-77
-2014
-21
184
-781
-154
-30
-535
-1229
159
151
444
939
-91
-604
1488
-476
-631
-497
611
110
27
-134
472
117
-937
-256
240
-532
-968
-24
389
879
-374
759
-159
534
290
402
-691
-907
-6
-1273
-1195
12
1230
585
-578
-792
-600
2092
283
-1060
523
-400
202
-238
107
-115
-1265
-22
-661
259
-524
-78
-388
495
-706
113
1822
-241
-296
496
-210
-228
81
190
6
1130
-1076
1271
521
643
-813
463
782
-214
-626
754
-433
-1
-1286
-1421
926
472
-534
-721
681
-56
570
621
-429
-362
-1428
-507
247
1248
-325
703
-758
-911
763
-2455
47
709
372
-1126
-317
438
408
-257
115
-375
202
1445
-1347
-411
189
908
-674
-536
-611
766
-846
418
507
-692
38
-580
-617
210
-237
-355
164
-532
-832
176
259
-2040
-921
-606
547
23
162
-350
82
182
379
410
-375
503
-108
-599
-1529
-918
-913
297
2023
-901
-882
128
397
1873
182
-1283
83
-929
-257
-849
684
1339
-297
63
-473
322
-526
504
-10
-539
1717
408
579
1055
-224
843
1104
598
35
-40
-393
75
19
-645
407
14
1103
198
-90
-12
1410
-548
421
415
80
951
893
-287
-362
1055
922
-27
1646
-71
230
-770
-176
-41
-402
-273
-592
-542
-355
204
-1370
719
-1525
-217
-103
-259
663
257
-359
-783
-190
1078
689
-1608
271
880
572
1048
138
-155
-230
-89
-75
-608
-1353
644
-1482
-633
-637
-287
152
-742
-1148
650
-439
557
-322
-799
178
-757
95
-1688
-781
275
-852
-518
507
-579
-288
471
-475
-110
661
624
721
-646
715
-330
-542
-298
-1100
-85
4
-125
-1639
-1338
459
541
14
23
-398
1056
1200
-607
175
1054
219
-69
-1052
37
36
895
-122
715
-536
-1217
670
-369
641
-208
387
653
-557
-182
-972
351
-953
-381
-659
9
17
219
-285
-852
-778
1181
83
-1886
1036
-1173
51
400
-183
546
-625
-220
779
793
-154
-168
461
974
-279
540
-71
631
-376
-89
1015
-454
-242
483
-627
-524
843
548
112
-438
-1070
62
-938
-291
1717
-1143
-102
-907
-103
-44
-573
1427
-439
-968
959
-503
-745
-87
1165
-205
18
71
-209
-989
-318
314
649
265
-72
-540
-1403
1621
115
-913
189
-289
4
-721
728
-839
-1712
-442
-270
560
-409
145
835
714
-444
50
868
308
-50
-245
596
-8
-182
187
732
338
-437
-391
135
524
-386
1084
38
330
-1710
-664
771
979
-777
137
-581
-848
486
251
-301
511
699
534
803
-62
-1108
528
-581
-155
267
-1478
-1072
597
-72
543
-290
301
-232
-506
-298
-46
260
-191
36
-1112
-514
-187
240
31
400
202
983
-121
344
1202
296
709
-8
1350
592
-1368
-1323
-206
217
588
185
8
-304
1967
485
-1152
1909
22
201
-273
-768
1013
330
1019
-310
-864
-819
1
-525
-1302
-2013
-1305
-932
-527
-158
-708
703
617
-173
66
46
82
323
872
720
-1407
-140
-139
-690
-441
981
8
-966
1596
1316
-406
2195
938
954
-449
15
186
-374
686
-124
330
36
60
-1067
-228
421
102
-1254
317
1321
-353
-412
391
517
-831
-80
-755
143
-838
-524
-1077
-4
488
-1531
1037
-570
242
-343
593
432
-335
-1545
-33
598
1200
-301
-1363
926
903
850
-750
934
477
476
180
-888
71
778
329
-189
698
-157
-114
-579
500
1209
-1009
106
194
342
306
77
128
847
876
-232
320
1055
-147
-264
1638
-707
-347
-117
-617
392
-2093
-582
-140
-794
-1674
125
-500
-718
225
618
689
715
738
525
-420
-602
76
-779
299
-1162
130
32
-1641
-1523
419
136
-468
-203
-438
-462
822
-184
-182
-1005
-631
33
-736
-92
615
608
-852
-882
-489
-6
564
57
-599
-244
626
-59
47
-1174
14
731
-455
281
-748
323
720
820
-788
-49
163
598
-339
404
745
-171
603
700
-311
-109
227
3
-690
273
531
-800
-11
104
-525
753
-231
-153
156
-413
712
-365
425
575
749
210
1104
-324
-1022
389
-629
-1076
207
-100
-293
-611
131
-162
-810
-48
-1516
-269
356
324
-214
-166
-541
166
559
532
384
511
-833
749
123
867
-293
-405
-641
52
-158
-550
517
279
-1573
-611
236
207
836
-1237
418
-1200
-461
-792
145
-336
-1652
-158
-442
917
585
-591
568
200
-703
978
943
-1037
883
-70
-248
-198
339
-600
26
538
-1251
929
-160
-905
713
-32
-78
-167
-10
-431
1028
569
-600
-577
123
-2646
-866
-988
-392
-121
411
-135
-716
-285
-10
-910
834
-861
-92
449
-975
-135
-559
333
879
469
-427
-345
-1411
-400
-187
821
-415
-274
-1453
33
1052
624
131
-648
185
-569
-173
-1048
-292
-1126
428
-344
-395
222
-35
-601
-1729
-262
-1792
-1185
-85
433
49
630
113
280
48
2143
773
-362
112
328
-621
-1710
-649
-646
-53
368
372
-1213
-434
-310
1040
-332
-292
-366
1346
757
-782
-539
280
-718
103
18
660
159
914
-1203
-1675
-618
-532
409
312
-63
445
-940
-205
-303
-468
-461
-1517
-537
-260
186
-330
3
-118
-225
-451
-323
156
-622
968
12
-441
-393
512
213
-1655
-604
306
-108
-440
-651
-474
-1084
-317
-45
-257
-1567
-493
389
-642
-180
257
-859
-893
-741
-747
-769
228
-36
32
-573
-74
108
-810
392
174
347
-205
-565
-38
1059
-542
-360
-3
-1150
168
-229
78
-786
493
914
-446
77
-373
-740
17
683
-172
161
108
121
592
-347
-1849
-344
1436
-563
1423
574
-10
232
523
-260
749
507
838
-119
6
-1226
-743
45
-3
764
-931
317
1150
-573
-604
-951
-748
1206
225
-916
92
-89
-1364
390
-969
709
1064
-203
928
526
-299
-160
659
-703
-32
-1375
-597
-1535
-907
-505
123
314
-100
-173
-1262
261
2583
-823
28
1044
-927
316
1010
1632
207
-449
-296
113
-291
366
-141
-1294
52
-2423
-655
-471
-411
528
460
511
517
240
-28
-573
-1149
80
170
230
228
-1027
191
1104
-568
283
-437
327
-319
456
113
543
-72
-685
-352
169
-402
-482
-718
-442
-92
-195
-281
1036
373
-762
-1173
814
436
1059
137
388
1461
-1594
-616
2372
-2532
1012
187
153
164
84
636
-433
199
-297
178
-1586
-294
-1959
-129
-230
888
-310
741
-301
-951
649
-878
-91
467
-536
-1013
-231
77
605
269
437
-1510
-1172
160
154
-73
-108
-1029
222
-148
-187
342
-334
-1386
-691
-423
-594
-880
-659
325
-1159
-1315
-1225
546
1046
1462
768
-1039
-72
-58
-582
-46
-63
-1267
613
447
-1318
562
-37
382
236
-80
-2354
-338
325
-343
-1636
-1630
-91
-614
742
-459
652
-554
1319
-1291
128
-354
891
-1994
-16
484
-283
395
-495
696
-71
586
1666
-834
1072
399
-139
172
297
618
-88
-22
-571
-787
-341
-1069
-904
176
-1049
-1515
202
-635
-625
-139
-536
-323
505
-426
326
-718
50
-518
-724
-1034
686
-468
737
-699
-67
654
-810
-55
-623
-723
-826
43
-194
-6
-336
-147
592
887
207
1044
-410
-424
74
-1049
730
-407
-1005
-686
-540
603
324
989
178
-201
811
108
853
325
-1061
-159
558
827
559
82
-571
-482
91
-103
-101
714
-817
22
141
1327
-279
-400
-612
-487
-338
-115
995
-251
-1056
7
143
452
171
-639
-2525
137
-348
719
-249
-174
323
-1833
-342
-1178
-6
445
-239
627
527
722
-730
369
-818
-203
128
-459
237
-438
-80
-1416
262
800
384
-1178
-957
-42
-1316
272
-12
-701
-64
229
166
-224
398
-450
-834
-656
-368
224
345
-228
-437
-441
135
539
106
-427
1493
507
287
374
-189
-142
-1320
113
223
-1183
-32
1062
-888
273
-722
1231
-1118
-491
-40
566
-252
-82
-6
-26
389
708
275
826
724
416
-219
7
-598
525
523
479
877
1018
-21
-1174
1511
-749
153
1188
689
-319
-789
703
-1867
420
94
-9
889
-882
-38
650
282
827
-696
-452
718
183
-103
-503
-489
722
-1418
-1659
-102
-715
-1404
467
1226
-1061
-1560
270
-825
134
-1195
1232
74
21
437
-418
-327
-152
752
440
79
-2454
-968
-768
158
-606
50
-57
1889
921
317
-58
-364
-616
-983
-669
-1480
385
1038
-713
-525
779
-930
-628
1379
-1023
409
-243
1161
292
-930
-104
-88
-388
-677
549
-363
-324
-178
2
-1073
34
538
-233
583
1151
-431
259
-2072
18
65
-260
-288
-829
-799
996
933
-110
-26
-259
-1653
430
-334
-1071
-2623
474
1138
-896
-25
-866
-755
383
-616
1264
588
649
925
48
1335
-831
-1443
-259
758
-868
1156
-325
-856
471
297
583
-426
-94
-153
359
-1569
-1390
-1445
682
719
493
-763
630
-205
-74
-220
110
-462
-254
697
-705
86
192
-252
-460
-1390
699
15
988
-2184
648
-358
147
183
537
-135
171
472
718
-569
-1196
551
243
244
1748
481
356
-729
-1045
-836
-70
1583
53
-77
1104
-8
-478
-1832
-1
749
228
-1163
735
-32
557
796
-814
274
-236
1033
213
437
-963
-40
-1842
983
1695
174
465
888
683
389
-982
-785
-437
-246
1076
-567
-173
-1691
1050
-820
85
-262
358
296
380
-1168
-1956
-795
283
-636
1409
154
524
509
-722
31
773
-575
514
17
-659
-778
-904
-29
-771
722
299
-121
-507
174
-1110
-146
-898
668
669
-1268
317
-883
-1204
-2098
-132
98
-1169
-1627
-1151
-7
218
-910
244
-1027
-963
-1049
-1191
-762
-53
-163
862
722
433
-932
-80
-139
169
-469
217
-915
-75
-214
430
14
174
-347
340
-929
-1440
452
-892
42
-178
1871
-1110
-770
-1207
-33
-316
106
-512
-271
1752
1765
551
-2210
-943
-728
51
-606
-791
393
-488
-174
-794
272
227
-455
759
275
-2108
392
-666
-548
-111
817
-811
-1322
697
234
-276
132
-346
-670
-354
-1600
1184
-985
415
560
84
-583
579
-21
-230
-163
-680
77
-1081
543
-787
-1243
549
666
25
97
-391
-865
1281
-7
164
23
456
-27
-767
864
-1187
-314
-546
-785
417
-1355
211
954
-9
-398
1012
-47
-744
1153
-448
380
-187
562
547
767
-413
44
-244
215
54
-2
-972
785
986
-1266
968
-299
1773
242
-715
-712
-299
863
7
25
-217
-2167
223
-755
286
-353
-749
199
-274
95
-688
-1476
-1019
-660
-837
1159
-1070
-648
814
1233
894
-190
84
-642
-735
-376
95
-2316
-185
2228
-94
-1414
385
-941
262
1452
110
815
779
-669
-275
-1185
-135
1246
-941
-97
-58
587
-175
1749
509
1000
567
-932
-123
-518
-662
-1088
-706
509
175
-806
38
-333
-871
-1836
696
142
223
-136
-74
1168
27
480
1084
467
-497
257
-504
124
-592
-314
-179
-1375
16
-867
-502
-292
-1503
676
-305
-892
1511
-2311
-615
352
2372
70
-1200
-751
-541
568
-912
535
161
-287
177
-312
-203
-1202
-910
-1248
-1431
-438
378
623
267
635
-344
856
11
-463
-330
-2284
-929
790
-174
-828
-602
-815
-919
1178
1004
203
950
-232
171
-1057
-1193
950
-1633
-1147
-69
42
543
325
-369
-812
-414
-982
-207
-717
-381
-825
-155
212
-207
-1110
-594
-157
418
623
50
-851
-507
-835
-1122
722
-419
354
-338
-212
278
-943
-218
509
337
-415
353
550
-418
-232
-713
166
-657
-850
1043
-548
-1099
-674
-7
685
5
72
-400
-339
-125
-169
-333
-61
-1548
1286
-766
-865
-51
432
-261
108
75
40
-50
-652
-309
23
428
898
-557
-142
-1341
-943
100
-83
24
-390
-600
-397
-394
-319
-806
835
462
-94
-920
-167
592
-1194
105
337
172
298
21
-191
-572
211
-873
-438
-326
184
-296
-13
-110
216
-274
-733
-38
277
610
-827
217
27
187
-714
-283
-210
118
99
450
-13
-1458
93
-399
-433
-969
-1166
-294
-140
729
-790
194
-1969
1864
1442
375
-1959
-1180
-528
-1031
251
-1350
-1402
594
-876
68
129
-656
-172
-710
-1049
-982
-110
-1334
-203
-423
764
252
422
118
700
1356
25
219
-569
-15
-186
-352
-125
-690
1599
-79
-1018
267
623
55
-107
-479
-506
-1094
-499
-1391
268
589
864
-555
-94
-844
1
1826
373
704
-110
-942
-5
-2746
1932
-146
-551
-875
-310
-439
-1894
404
1447
-522
-27
1252
-336
206
873
-57
629
-937
220
552
8
-97
-586
724
330
-1488
-122
533
-806
1305
651
522
865
-198
379
-616
-3952
-395
1527
-23
-95
-664
244
-1063
-882
-1542
-809
-530
777
-232
-1020
-1073
-551
114
418
-524
374
-440
86
349
1135
105
-323
614
-27
-1074
-865
-332
175
367
148
-49
-117
1704
-1112
447
216
644
230
432
193
-196
853
172
-268
-1841
27
455
-527
313
53
619
567
522
85
479
1055
-1032
-768
-3
-1353
279
1175
-480
457
-777
-258
-130
-847
-255
-117
-2007
1107
633
-198
374
719
45
-194
63
-1500
244
-1256
468
119
196
593
266
894
-478
-44
31
-526
660
1175
-326
471
-23
703
-952
-330
-1110
161
-198
-562
-35
235
-1380
584
253
288
100
-1669
-1288
233
83
473
-1131
820
-952
525
-1703
-249
-1227
-1382
854
-237
-803
-625
-446
-1025
-406
613
268
220
275
291
182
-994
-865
358
-482
-683
-246
-1565
314
691
383
769
558
238
193
987
-1393
-171
-88
-495
-794
-13
198
-488
309
-278
807
590
-1864
549
-439
363
-764
401
842
-592
-792
468
-303
-2169
-1005
2
237
-94
469
-707
-84
-1011
2208
-12
-980
-2438
-1138
387
-1243
-28
-248
-475
1300
-894
-378
-621
51
-163
-1280
238
-142
-929
-949
299
77
98
973
13
-69
124
-887
1121
-492
184
403
83
245
-1198
-185
-567
-365
-53
496
-712
641
-943
-158
-263
-736
370
-27
-642
-142
943
-63
-927
776
-228
-1674
36
-359
612
503
-1080
-108
-478
1631
927
-131
-706
-2017
-1174
-397
-95
-449
-1387
-355
-658
115
603
77
570
344
-701
117
396
-567
258
-381
-15
17
341
141
-239
-368
-924
201
1158
1016
1038
385
-17
-1646
-2443
-385
-232
1061
-618
127
-289
64
-364
3
201
506
1020
-481
505
105
-118
1123
-168
575
44
130
-1194
220
-416
1206
-308
-764
-462
-490
-280
-410
-407
-186
289
682
84
-223
579
-114
-227
35
83
-740
642
244
-141
-312
410
709
-710
-1394
-737
-658
173
1293
-265
-467
702
1259
140
62
-1545
-276
1028
-411
-1637
66
-254
759
-282
-375
-819
100
-307
-421
-1859
-991
206
249
-317
-95
-211
-409
-592
1012
1930
369
176
281
-34
-1580
-472
-397
-987
170
604
5
-559
1887
-960
-287
573
586
457
-171
-6
412
-530
396
974
-1011
-376
725
-1037
122
264
-464
-1207
-80
259
-1602
-523
-1063
-353
452
-1070
66
609
-174
191
-56
-14
1170
-434
-674
-556
-323
-40
585
1022
-880
-1098
27
-255
284
-839
1023
305
-967
439
749
-328
1866
425
237
-368
-967
238
481
-682
507
94
768
-1759
616
-687
644
95
377
614
-25
248
-656
768
-2150
-656
-946
210
-491
-246
759
111
-114
662
-305
503
-1995
-1394
-380
-1302
-793
930
-348
9
-68
-329
747
995
555
634
-499
224
144
-764
-13
-565
-448
700
-448
-2035
-55
1047
252
-1874
-59
-374
-197
213
220
331
-1003
-1104
-1470
2652
-7
-174
-624
-381
-351
32
-341
6
-642
71
-478
218
-3
-955
79
470
727
-233
216
245
-368
690
-471
-451
-40
863
-1254
-229
-11
321
-18
-479
-343
-476
367
-184
-191
283
-48
-204
-310
226
249
587
-184
372
-695
-137
-771
12
1374
-500
195
708
-138
-916
-263
1738
-615
620
1260
506
368
-1394
685
368
-650
-1905
-982
-121
497
420
521
-1148
-264
532
38
838
-1922
600
-1039
-117
-123
494
-1199
-840
-727
-754
16
-878
356
-8
-961
-536
971
-423
-26
-1254
-441
-261
-32
-39
-548
-2349
-1347
-722
-527
146
-252
-1193
654
-1192
-445
-40
-862
552
196
-673
815
211
776
605
235
1478
-124
-1676
506
-35
-733
-92
-1263
442
601
14
-139
56
-46
323
-318
-483
-107
-342
886
530
16
78
-444
499
-165
655
131
-197
116
872
-703
-651
-834
115
417
-623
-1127
-127
-797
-1166
1031
-892
178
-118
-1837
-360
-1
1049
-839
-789
-144
-813
57
-892
-624
-1759
1268
339
644
282
441
228
-966
-1746
-361
-1149
194
1447
455
74
886
605
64
941
-247
-255
838
680
911
-1882
-445
155
-85
494
1329
-618
230
-100
-601
-252
-155
819
721
-867
-657
-856
864
-13
-67
925
-347
484
1251
-916
-1181
-897
-1250
312
754
-178
358
-358
616
-452
-77
-1898
-491
-724
91
540
-700
-308
168
211
-427
879
784
1338
-53
159
89
502
45
-206
-1593
-1003
688
202
588
-864
-706
67
-472
957
0
-930
97
-52
-966
-536
817
-2260
-1083
-802
69
224
140
-240
305
-168
-551
-824
-963
-106
-766
-89
481
296
-289
-63
-815
-895
900
212
-1070
-228
-986
-574
592
-278
-487
-597
-1416
-224
-970
116
-21
-166
376
-38
1816
-505
14
-2600
-104
-174
373
-282
130
17
-1147
887
-1235
-801
399
583
-123
-2295
743
340
602
616
66
-148
-1366
-1605
-476
-348
-145
392
48
-581
429
-691
-82
-2411
-1280
58
685
-18
-787
1639
865
146
-1200
-876
462
90
-165
-1838
-1066
-1013
337
474
-126
-1427
-259
352
-691
-1333
-68
495
-1870
292
316
-89
-486
-387
-335
-280
-40
430
-1334
-1907
2186
-830
-644
-787
-421
132
-59
217
304
-603
-383
-1221
-409
-506
-310
-346
-615
-1596
-61
417
-895
136
590
490
-507
-691
-124
-1370
-414
-766
1566
169
1064
-618
795
426
-318
-395
-435
498
-15
-823
287
-29
256
-371
604
-24
-1780
-609
473
509
-2826
691
-1710
-654
1069
626
1006
-2670
-493
-627
-2709
-2653
1271
1218
985
-171
873
485
702
-878
-218
1177
-143
503
-521
667
-119
-405
79
-503
-545
-400
816
0
1196
1080
1375
-1766
891
1311
188
-714
-387
-622
357
-387
-421
-1048
-245
-711
-208
-1314
-1834
-1203
-660
81
-222
858
343
-1920
-196
-1095
-315
-528
58
-1712
-484
242
379
-161
-687
-2092
366
-1868
-632
-1566
-346
1119
-156
1241
-950
202
-994
338
-336
378
-2050
270
-643
191
-321
347
-135
-21
-307
-365
-82
-156
326
1553
-284
-416
-1082
1001
-861
-375
116
-465
2305
563
46
-905
-1465
-877
65
-729
-1787
-119
529
392
-21
-188
-695
219
-13
421
381
-1327
-808
1503
-149
601
334
314
-181
-1685
1022
-818
-99
-3120
392
1199
102
701
-434
881
266
375
27
658
-1872
289
-275
-1
-98
913
232
-761
-60
-19
765
160
697
528
-551
751
262
-2280
235
-252
-120
-320
2162
752
-748
346
-615
-610
-73
23
34
-633
-270
-648
-160
48
-398
-1590
-901
-277
-1044
496
933
-186
-1091
-841
-665
-146
87
-863
-540
-800
388
410
339
-85
273
-23
-631
-236
-1375
-255
-818
161
144
135
-344
-388
715
-443
242
-284
464
-704
126
805
88
696
-746
-1306
499
-384
987
-692
-462
-1020
-1470
-285
-1375
421
-1154
1344
-1804
-115
48
526
-591
-498
-238
460
-601
-264
-1163
604
594
-933
-1137
192
839
-613
220
226
-558
54
1998
-830
330
-2205
-140
1090
887
914
491
305
159
-117
54
20
-2213
-13
-346
-271
2160
-382
130
44
-146
-44
-1179
1694
-61
85
-138
-193
-914
262
69
1771
366
-1632
110
-508
46
1252
-650
566
-903
641
541
662
-563
-510
-815
-172
-491
998
-150
874
-432
1286
-1228
1201
-17
1303
175
1037
552
-994
-200
-1000
-1197
-654
311
-91
-807
700
723
728
159
1012
611
553
528
-561
-1145
-638
4
-442
453
718
925
554
-463
65
386
-1025
1177
136
1459
-1309
-999
429
-1497
-803
-301
44
-1117
-727
749
-442
1151
-1135
655
337
-263
-904
358
-284
-9
-43
203
-1169
593
133
-466
-1070
446
-872
998
-534
-242
233
369
611
63
-281
48
-607
-530
-223
-749
-862
-652
-841
236
-3061
-130
-302
-938
599
-1185
-636
-876
-456
550
946
420
250
-407
-489
-33
1215
778
496
-833
-25
455
-89
1346
-921
-1007
-110
-501
-190
-271
-2143
-280
-2718
262
197
1326
-1435
972
-182
-588
-1051
-206
-995
-465
338
358
372
-1441
74
-10
27
152
-1032
643
-472
1116
-589
51
-898
671
-619
32
-236
-217
623
-728
806
322
443
1125
241
-202
-2373
-253
-155
1374
-23
21
12
644
765
-9
-913
-334
287
406
-1079
-905
310
340
411
-604
245
-36
795
46
156
-978
1023
1250
868
1484
58
321
151
151
974
-1673
-1368
-245
1386
1763
-66
-144
866
-373
-802
887
-534
-72
809
-315
-300
-1022
10
-619
-108
1068
-1265
-540
-643
-1041
677
216
-839
-167
-710
-129
-507
222
-396
159
-946
-1224
-21
-605
-1767
67
-617
496
131
-444
-17
137
-892
-1214
-209
326
258
-756
-271
-761
250
-244
126
-446
-24
-271
-508
865
51
5
289
322
993
2103
-1216
-1003
-370
292
-251
1757
1416
-426
-224
794
1108
-519
720
-111
118
-618
-580
1070
-448
-464
566
-1251
-732
-146
50
556
-475
1335
-496
142
611
1042
-394
-1433
1279
-243
-301
347
-59
-1268
-452
1245
788
-276
844
590
6
-1234
-782
-835
-246
338
1270
-1587
-804
-147
157
-1058
70
-438
57
-342
-468
263
353
965
290
-148
-45
-61
418
193
710
-632
-675
-279
-471
-1193
-666
721
-680
-165
-109
-172
-1647
72
1007
-419
-840
-293
842
-370
153
-394
-677
-821
-90
610
-411
-642
69
-544
584
816
-106
-866
1092
-7
154
-334
259
-35
186
419
660
1335
-560
335
82
-221
-1
479
280
202
-1169
216
1110
484
-360
-1511
564
184
-25
-302
-1277
-639
-820
-497
367
-868
-886
90
845
-1185
274
71
76
196
990
-944
-84
-315
651
1372
585
-625
-488
495
128
1245
-533
2057
-387
138
-208
-1258
-817
-1168
-185
-307
-226
585
505
205
-213
803
191
741
-950
647
390
26
1479
299
-899
388
463
263
-909
131
679
-323
-394
241
1984
-202
-621
-1321
-494
328
32
-1105
-355
599
-330
613
306
109
835
271
281
-772
-849
-74
-1179
-359
-873
-870
168
130
-999
7
-1223
282
3
-224
-1523
-332
-5
1860
69
-1542
507
-389
270
-495
192
344
665
-94
235
-420
-19
455
-1399
-539
-37
-548
-450
36
1251
-431
-1295
370
18
1369
350
2090
359
-850
1245
-160
-651
-223
16
-817
444
430
274
951
-1225
596
-283
-25
-719
358
-467
148
518
-456
-1022
-534
-104
-944
-809
-799
126
-1408
-5
-1086
-542
-568
-244
1543
404
680
411
35
389
-675
821
-129
122
297
-115
685
330
-738
53
246
106
1333
-354
-1035
-411
-1518
-391
204
-254
-903
210
127
-750
-136
-160
-838
344
749
521
681
344
-589
1024
-1096
-419
371
-1126
-674
1453
511
-165
296
-47
1076
762
183
-292
711
-355
583
-956
165
-478
-933
-96
-243
-773
-1536
-54
-106
-1564
-141
-55
279
124
-351
-365
523
-731
-588
-19
441
-258
-564
174
375
-239
-1155
344
31
-650
-413
-880
-499
443
-279
-527
-888
704
12
-208
-44
-206
193
-586
359
946
-248
-99
-717
648
-305
578
686
-75
-624
-1697
-369
-510
1000
-194
560
-1057
-239
459
444
7
-827
1975
-91
251
1393
502
-64
-1726
820
964
19
622
613
-426
-1318
-1199
-110
-464
464
1031
96
109
-924
-404
122
-6
-215
-1230
-177
333
-817
-609
1364
-633
529
-1788
612
-1398
682
809
-556
-922
-1333
314
141
-512
764
268
596
-874
313
-242
5
222
84
329
-240
-284
-66
-388
-540
-790
-868
158
-82
1024
-1432
-341
-520
-539
-457
915
-137
130
339
-202
-1346
-146
-600
-149
-351
-95
2562
483
676
182
7
1245
771
-21
-377
-380
-501
772
1632
1130
-3
-832
482
1098
-401
-1005
-584
-510
-284
54
-572
439
-2
-1722
858
-1516
-860
-864
88
-423
-57
809
-558
-1026
569
1087
-459
-47
-21
249
795
146
457
-1567
-25
-542
172
-99
596
554
309
-103
999
-416
-302
401
1024
1069
516
902
-393
-1997
462
773
418
338
-483
-395
781
403
-476
-824
-484
1034
1448
-1587
224
542
192
26
-383
454
93
-1163
-2095
-479
575
-1203
1765
302
-345
-156
-169
-1203
1164
-832
-406
-164
269
229
315
265
-568
-1236
934
945
-439
1046
428
1124
787
261
-826
-473
-59
14
-1094
-1110
855
-1296
-1107
-1201
34
-39
201
-673
-252
271
-615
-222
-325
-576
-505
-285
6
-158
-605
792
1120
-1110
84
-49
-122
-571
-370
873
212
-793
-165
-957
528
-702
1035
101
460
-523
629
-843
13
1354
306
-928
-882
16
-14
453
317
497
-536
-343
1156
-1929
577
-545
-755
594
-613
616
-695
-1497
-256
-21
128
504
674
747
337
-776
-254
-1385
-724
-1386
-298
-532
876
304
-64
-638
732
-641
1450
-928
-1665
1238
-489
819
508
64
-1210
-615
473
1106
181
-90
119
-476
-442
-165
-602
-1683
282
-3
178
20
565
40
-400
-37
-126
-397
209
753
-173
-253
545
-58
-744
224
-537
-225
-658
164
717
106
-1158
50
-765
-330
-222
554
-162
497
1001
627
-1030
126
-493
-590
-4
144
442
-723
24
302
156
105
-1875
1185
-43
559
1059
486
-1779
-40
-671
1390
46
-132
-98
-214
-64
-1028
394
-437
-282
1378
-520
358
702
94
563
253
-251
-142
-568
-1221
137
-723
-2159
-15
-898
-190
1312
-300
-501
633
-284
1036
131
833
622
731
-472
402
1533
279
24
971
609
-30
475
-707
-1264
-228
-332
-121
-75
974
196
255
-503
-739
-657
-527
400
-559
710
608
-361
-927
-254
-10
-482
540
331
85
-1287
-95
-137
-80
-322
-1525
-551
-93
820
124
609
-181
-1178
1384
-267
-529
652
660
390
547
-119
-93
271
-1152
-1
-472
688
281
-1141
-1727
-756
-1272
-71
-380
-1275
84
-398
-418
221
691
472
481
-587
-422
-847
-994
486
366
1482
-1166
-1469
27
-46
-2423
-662
184
-211
-620
58
-24
159
-586
1137
959
477
-868
767
-1299
268
547
-504
-319
-1105
676
-550
-497
-1265
-1149
584
-317
-503
792
-250
79
-1500
336
-2194
326
445
-305
-520
1012
-6
422
394
-1182
468
179
559
-624
-295
1083
-505
-1844
1210
478
305
137
1330
777
-219
-168
-22
-885
450
-51
77
607
-1080
331
400
297
97
622
166
-100
481
1112
505
577
-1095
1
-325
-34
544
493
-395
-364
-825
290
-851
134
-865
546
1460
-539
-421
834
-766
-93
-375
436
-608
-1304
-1335
205
103
-764
759
511
1042
33
-189
-2086
169
520
824
-320
-908
219
20
-626
-444
-90
448
-1460
519
-421
1018
-291
-45
-267
-379
89
-1367
-860
-744
649
22
197
65
-943
-519
45
466
-1151
-202
252
-1157
-465
-173
-1354
664
450
501
-481
-1137
834
171
-285
-876
-1060
456
-99
-424
219
-183
-284
-172
224
-134
501
-370
-21
-467
476
550
262
1219
135
357
-1316
357
386
170
-1282
165
718
-237
139
-463
-1494
93
-163
-679
-872
-22
-1041
332
38
-842
-681
-1337
-6
291
202
470
233
-54
-318
-636
220
224
1395
1221
-950
-574
-475
-183
-765
-386
435
-594
2597
457
420
-1371
-684
363
309
-422
1045
-296
-296
-573
-259
-485
-1572
-871
139
629
284
-2030
-923
373
33
58
-967
1252
-1181
775
664
-693
-169
41
768
752
456
-361
539
-485
129
-915
-175
227
980
-773
-1294
-947
-1209
907
822
421
342
448
-597
407
-200
-239
-663
-201
1156
399
-1261
-379
-462
986
171
-575
-393
331
-133
568
94
-169
-731
-1406
-1111
875
1217
-158
-528
285
-1393
638
-635
-89
-58
681
-312
752
680
-483
-397
346
250
168
1030
1695
-460
-37
260
-699
-140
-956
-588
-338
-992
386
433
-993
-367
1087
185
475
-878
-805
-1030
231
-12
-202
-140
-803
-209
-71
-797
-777
552
-251
469
102
-1265
-848
-508
-610
200
-143
-202
-705
-486
816
875
-224
-828
-82
-604
-754
-803
34
-1120
-104
-446
617
5
-402
301
-297
190
139
322
-258
415
272
406
969
96
-581
-435
486
-8
-462
-1177
-228
220
28
-174
-831
-918
223
290
793
-276
634
-1934
-68
-871
120
860
-582
-194
-197
-1343
873
333
1119
696
1134
77
178
-155
-1169
-235
214
-1070
545
1008
960
-688
139
-893
-356
166
78
391
-1545
-1180
-537
-57
659
-39
396
-435
-129
614
937
-763
-565
2077
128
369
-77
352
-1715
-668
-1061
-210
254
-262
-548
-1896
-1480
-1203
477
149
51
-653
-152
-1920
-362
305
-24
205
-374
40
-32
-984
796
822
-948
1020
713
42
342
423
-145
210
326
-942
464
1175
173
-1047
-328
-995
86
341
-861
-1448
319
1020
-1673
-2142
-675
-477
-1754
-842
-1043
-20
-939
-542
767
-734
565
-16
-1917
-910
1298
504
-439
44
-516
547
33
605
-1
-298
260
591
397
161
-720
368
-119
-844
-174
917
-672
-282
342
87
315
-85
1225
919
-28
-1463
944
1578
-25
-149
521
1019
603
-7
410
366
-214
-45
1193
-296
-702
-506
101
145
-1481
-1513
-297
-1073
-704
417
-196
-208
-1348
-52
326
-145
-844
-714
-2445
-569
-597
243
687
549
-1524
22
2071
-612
455
491
1693
762
-1189
1601
-21
511
-1297
-355
-231
-293
-8
-434
40
165
1176
123
-760
1089
-403
-136
-336
-626
828
-705
500
2
-641
-906
-25
-1230
-1452
-1754
-252
-141
287
644
430
223
459
844
-916
187
-734
-467
-225
1409
5
-122
-1661
707
-151
-396
-343
-1361
-1899
-171
228
99
-861
-379
-805
831
418
858
771
600
384
-769
174
-30
-246
-165
234
-565
264
-312
-993
267
-290
-1008
-275
-659
150
187
972
-254
-269
123
334
784
-789
-123
18
-670
-529
-117
-160
644
17
675
-120
30
142
-1206
230
533
-697
227
-15
-777
-796
296
-277
-349
726
-263
-383
-919
1300
-537
176
469
486
647
163
789
-1164
1086
1507
861
472
121
88
935
-51
-356
-247
110
607
-307
49
14
-205
1355
-277
-882
307
-1153
-99
-175
479
803
-412
-152
-498
-1227
1038
-168
134
-492
-429
-364
-714
547
-399
-704
304
-811
281
16
581
1162
929
-208
-911
-341
345
-1438
31
-532
1734
178
-668
-277
-363
903
-17
-496
294
-224
-1524
873
600
536
-105
755
104
-338
2
615
473
-293
1638
1005
-243
-265
181
-1588
792
-381
-1016
-576
-1110
50
-1340
-362
-806
1079
-808
267
-766
141
-190
252
-1079
-295
1320
86
-493
1228
-199
-120
25
1191
-658
493
-368
1223
14
290
-48
-819
1708
-1009
1000
-725
-11
88
-429
-164
248
377
-302
448
-45
-334
773
363
-885
-610
910
628
548
-94
40
661
-378
-296
-870
38
-779
90
140
-303
131
636
1407
-973
-509
246
-720
679
-909
843
-1512
49
-656
79
747
1370
1622
258
-1472
558
1023
-347
-463
-1832
1055
-680
200
111
83
712
14
877
-1114
43
-442
1936
153
-150
-585
-331
-1957
914
-951
250
450
-135
35
-446
-296
-142
905
-39
153
-1300
-293
106
-232
455
826
219
301
43
-1478
-1165
569
-1465
-413
1204
-17
-5
-1322
-111
-568
-629
-2
349
1677
-543
11
-249
-353
127
203
-1496
-925
-691
-559
-966
-229
-1590
-629
765
-679
648
-416
-560
-85
147
-1111
-350
450
1890
1173
-232
181
267
-1088
1422
1081
421
42
474
-454
895
2277
-1723
-1464
-352
-398
-508
245
626
-196
-470
1137
-217
-402
-1779
1303
-270
711
1054
19
759
344
-175
326
-1622
-569
1780
-4
1473
-507
811
-653
1352
-104
598
296
-1300
-197
-1563
247
-623
-401
-600
1215
-856
144
138
-1612
96
-289
565
83
-330
126
-452
546
-179
100
369
545
-811
447
143
-81
549
-1515
-387
709
-265
22
450
-428
-227
914
-130
-803
-62
126
-832
386
-329
-287
632
-885
344
1384
-557
462
83
169
-905
285
897
1653
55
-134
-747
-436
-1090
291
-903
-597
-889
3117
-1437
-233
559
-1635
991
512
190
-1563
-1495
825
291
-793
1440
-1492
-232
844
1649
-1849
-324
1671
282
-316
-119
-70
1958
-512
1119
-961
151
-26
-768
-270
61
83
-775
218
-239
-204
-1007
-459
-40
-189
-2074
-868
458
855
-891
-522
-245
405
-528
-1253
-116
45
-929
113
198
59
-594
-578
1174
-359
-1289
1029
-531
-1092
-769
-520
1180
1106
932
-1266
758
111
-1879
-611
-740
301
-75
896
292
511
-650
-1509
93
794
-276
-631
-69
331
-350
105
168
-23
155
-1311
116
-784
-411
434
746
137
1266
-54
-104
-382
1097
1094
439
444
-48
-419
430
-1057
236
-1487
-1085
-269
446
-107
1120
-482
-484
-652
-525
211
599
-132
1166
415
828
636
-1677
-262
341
-907
900
155
68
-359
-244
735
347
-651
351
342
-69
3
-1017
-923
-236
-687
-680
296
-53
310
-160
308
-396
238
-822
113
519
340
120
-61
-1281
-19
563
-343
-448
-262
157
967
-505
832
-198
-852
-508
-413
419
705
-509
-436
-240
545
1118
394
619
42
-94
-251
-1672
-464
-1325
-526
613
820
-224
10
-363
-1939
296
-471
-429
76
547
-433
490
-168
-26
-503
-101
208
-52
-159
1221
1505
-635
-16
-119
439
-1384
-3
1138
-81
-1044
-1480
669
-408
-205
-1269
-722
-316
1295
-819
992
-512
-498
-1055
65
96
770
992
223
-233
-779
-22
-399
595
1769
24
801
595
214
43
-649
-150
-1020
-92
573
-330
1045
-435
-997
153
531
-353
14
-190
274
-896
649
-321
643
1406
252
-3
415
319
-327
-426
-1206
-323
806
-52
133
-1619
897
517
8
357
63
638
193
-716
-1255
-383
155
171
-486
-74
-350
-959
306
165
-31
-689
550
281
-1110
-575
1350
1428
-832
767
-469
-1335
-293
21
361
-109
477
-1040
32
-25
-1287
-1087
532
161
-189
293
102
-125
633
-658
195
759
-203
704
117
-587
994
440
524
-1263
-616
-427
-958
747
-430
1439
-1572
-4
719
254
-1368
246
1064
-581
-815
-588
1089
-949
-732
-232
-44
291
496
-539
76
-164
-403
-1016
-565
1678
-166
-717
-1013
199
214
251
482
721
-320
529
682
583
-164
-1062
110
383
705
137
-243
614
168
-86
198
696
438
-1311
-553
728
1154
-328
232
-1241
-575
-975
-620
-157
1244
-187
-204
945
-822
-1160
-697
-1991
371
1385
473
-669
-144
-295
-112
713
1242
451
278
-62
-442
1691
-403
-576
789
644
-260
-942
1092
816
179
38
447
298
950
-434
-1003
-1156
-126
-175
-570
488
275
-500
-314
-1235
-493
-517
308
-259
-256
-389
-264
1277
128
-348
-454
1211
-231
-629
1187
-275
-542
-443
1146
-535
-724
-517
-587
-880
-494
60
-369
-203
973
-1000
836
-143
812
-873
-403
222
-168
-80
351
1428
-191
-391
11
-742
-847
857
496
381
198
-782
-336
1026
-654
1643
1175
228
612
-836
339
-1174
-1257
815
-1632
211
1796
-449
1314
313
675
192
-158
250
862
709
654
-564
-365
291
-544
-815
975
578
21
-362
-322
-344
-234
-165
397
302
-127
-143
91
-156
-17
537
-70
-240
-1201
-522
-967
681
202
-221
-861
-63
-31
717
947
-573
120
1362
-26
1059
-1357
-59
110
-96
14
-640
-386
-1471
-317
90
-761
925
-79
346
776
461
-809
-766
1215
297
-10
-184
15
-389
-657
463
977
458
-514
-337
591
899
-851
-384
-774
-1248
-641
-32
-1234
-229
-427
-1129
906
-982
550
-764
-682
-2327
-1005
-31
-297
-600
-1275
187
293
129
-600
730
201
159
-871
-726
124
34
49
-59
713
-604
1449
1140
1152
-220
-252
370
147
124
-764
816
1142
66
419
120
165
-308
-340
-863
-311
-72
-727
-233
-874
-360
-1379
467
-404
-496
-504
530
704
391
-871
-311
80
1046
252
-1179
-185
1330
520
816
468
-42
-471
-456
-225
259
-1708
-295
1528
-935
-597
584
727
-222
-124
252
-223
-142
132
-18
-332
-1094
440
75
463
836
-309
256
-456
986
-286
530
-357
-579
-749
319
511
52
35
295
145
-168
-343
-369
686
-240
-623
-239
979
308
-539
-656
-917
636
1045
1686
139
619
507
-623
723
-742
-57
-387
686
-80
-8
-169
-751
-944
265
-80
-212
1082
222
-225
-1322
-126
-1045
361
-1468
75
436
-1776
-941
1024
-569
-1127
-342
180
432
245
1023
-730
71
564
575
-20
618
346
571
318
1480
859
-136
198
801
-1053
188
286
245
-321
-164
805
5
-314
-466
310
783
9
-525
160
-485
389
604
850
-467
-70
87
-559
-941
-562
214
887
-835
-95
179
-287
11
514
-970
-1189
868
619
-36
331
-188
-378
-1601
-397
-1184
-568
149
312
1546
464
1149
-985
683
-884
-603
-187
1337
26
-140
-553
998
-245
-851
188
-474
729
691
63
938
-468
-733
3
1168
144
89
317
62
-654
57
1022
628
217
689
-301
-333
421
345
-763
24
-146
-264
377
316
353
72
172
628
-376
-510
588
798
-859
-113
-148
-1166
690
404
378
59
-789
-1239
-427
114
-238
-882
-139
-182
-1310
-1590
659
-488
-40
249
-137
-139
54
-140
185
1016
826
-441
856
883
320
-953
-183
1275
4
699
626
159
-819
638
-566
848
135
109
-889
-285
-951
784
466
612
-867
426
480
885
-1049
-178
-1095
-1316
-386
-1016
-165
698
816
-513
-632
-416
-347
314
-590
727
145
585
-386
-448
101
-289
-78
-397
-426
316
27
-23
612
249
-973
-290
-152
592
300
-514
263
46
-426
-13
-646
164
408
-67
-166
-187
59
-1132
833
248
-400
972
574
40
373
-303
5
-76
-453
158
-965
215
642
86
497
21
-595
1
-587
704
-145
-74
-989
538
1950
464
134
-1416
-2669
-2387
209
-1261
868
679
-561
-1935
-682
87
-1090
668
-235
-61
-578
-214
-1036
-693
1132
-1827
-564
340
-1564
-332
-397
-180
-220
13
1228
-817
-674
349
-176
-323
-15
53
429
-1146
-286
-858
289
-113
612
-26
508
61
-185
328
-584
-1398
-770
-374
-269
-755
240
436
-588
-93
-389
503
-568
199
799
-301
258
114
-685
-1192
-660
394
-706
-789
458
-480
1567
1088
29
82
11
126
817
31
44
640
821
-68
-411
591
-260
-736
-499
-672
-404
509
-263
-21
985
-149
-10
-456
469
-773
114
1108
-647
-201
271
-46
-688
1006
993
-1131
773
377
613
-1345
-183
150
658
-323
737
-968
226
687
223
359
-200
-1587
-990
475
522
-1263
4
-467
765
-730
-453
-1661
-284
-453
-1563
552
-684
-6
600
799
-528
520
1106
223
-1317
-201
-1492
-686
-498
-538
1
-112
-899
553
274
93
-305
909
-309
-555
-591
-165
-840
-585
1551
-1
-29
-235
-291
682
172
-788
-28
281
1318
-361
356
65
1128
169
258
-1415
-272
251
225
915
573
-91
-271
184
-87
174
-196
1023
-668
685
216
167
-160
1675
1046
249
534
576
-618
-374
-860
-1625
217
-687
368
1006
-1526
-1091
269
402
106
-1049
-25
1119
685
-56
287
-515
749
-850
-647
60
-256
1145
-951
-118
-234
-552
-200
1091
1027
320
809
837
433
-1162
643
360
397
-326
-274
-948
519
-674
-119
1586
156
515
-885
-955
-624
198
60
-817
98
-116
966
714
875
-666
41
-752
-1595
1325
271
-988
370
930
-411
-375
-1103
-291
-246
-77
-216
-1049
1128
-210
847
501
823
-1088
-296
512
35
65
855
18
110
-816
-641
236
-428
-491
1202
-102
1485
1183
662
426
-1568
-450
-991
259
-143
-136
1221
674
-589
-265
-57
-801
428
-587
-771
-452
291
63
-682
782
991
32
-464
221
858
-231
-241
993
-60
-385
-238
63
105
-1115
470
-200
281
-920
265
-712
285
-103
-539
-1452
1358
312
-124
-812
59
-523
-771
-319
-736
189
859
462
-733
-1250
1104
117
350
186
277
470
685
1490
1176
-524
-63
-386
-393
-862
840
485
-1787
418
-199
691
853
-1490
663
219
-40
-188
662
951
447
447
-361
-59
-931
-375
-939
-977
-51
370
275
1492
973
-896
327
-1061
45
934
78
-586
-1073
234
-537
697
119
1563
1060
175
-65
347
544
-325
384
-126
-92
-2855
115
1503
291
-561
-177
1074
-302
184
26
-926
2951
-144
815
904
-566
-1213
673
689
-828
102
-781
715
697
-120
88
-38
278
-1350
271
800
-424
-1033
-939
-61
-850
491
1006
375
-2153
-260
-118
-421
524
-529
-67
-84
-1803
-774
-373
-39
145
209
-460
420
-305
252
-1231
-332
752
355
95
-586
40
-369
-1317
-394
-85
-99
-652
731
-1077
1484
-1741
287
-821
-1216
130
968
-369
-185
167
-70
218
-1389
159
70
45
88
-862
1185
-186
1426
-1372
224
9
-987
1083
637
1025
65
-1639
7
892
-407
924
-993
-734
507
-395
1287
-751
-951
-540
116
-23
493
299
27
-539
1284
459
-569
750
21
215
620
-803
503
-376
767
-682
-878
418
515
1349
447
-188
-102
-57
429
-1016
1650
-1430
700
988
164
417
448
706
609
160
-672
-1235
-120
537
-405
-1457
-1048
-1216
-190
-869
449
-613
755
-1155
-570
230
579
-865
-311
-143
430
-262
1528
811
-1171
605
690
-831
669
975
252
297
1323
-682
720
-290
-453
179
94
126
-554
-1519
672
-484
-1236
571
-376
-25
250
114
281
-516
-635
276
-1138
-431
-2172
-446
-95
-1119
414
-410
-789
-1182
-830
-916
24
105
369
309
-885
667
-65
431
194
-151
188
1263
-38
338
-462
-602
-465
-547
403
-17
53
981
-809
365
-527
414
228
43
1715
-137
-638
672
558
-1345
828
659
-703
-244
-374
596
-126
102
8
1555
432
972
58
5
-713
-1361
-475
-604
-255
620
-212
31
118
481
-408
-539
-1116
-120
267
-899
464
-1109
561
-304
710
-566
-217
-592
-1109
-1208
-296
59
-1422
1192
-670
-139
91
-247
-413
-1355
-172
-1663
-501
-63
-806
-955
1735
674
-419
-992
-497
-660
-935
786
1328
-175
-1037
384
-3401
1147
-397
-35
11
145
-749
-189
-111
176
337
-654
-198
785
-357
-1132
-1533
-431
-659
-227
1328
-193
790
-720
-569
-503
486
-641
72
-310
-194
1297
55
249
-206
-367
-1599
-195
-34
847
13
-2001
819
415
30
397
58
701
53
827
319
-1110
173
308
-1017
494
376
283
296
-57
-223
968
-1030
1053
-139
-757
-336
472
800
142
-1173
-233
937
337
397
-457
-510
102
-712
-1050
-239
-141
-21
-970
1051
-1012
-1156
207
-1070
-395
1420
1638
113
-47
735
-895
-117
-889
401
150
-70
-542
-254
-28
-821
146
518
198
406
-354
-674
283
-313
766
82
-710
-1197
993
-40
-47
151
735
1284
29
-518
-1979
416
-12
148
-308
1195
776
-964
1105
-906
-199
-406
656
-589
663
-355
-311
1021
1337
166
-580
213
762
-643
723
1407
-83
399
-143
350
-75
89
-408
272
-88
-1323
152
846
784
930
-621
961
210
-121
1360
-245
-289
403
-667
137
253
-387
657
-29
-841
-1917
669
-245
-508
727
399
1090
106
-171
-239
-328
-240
-640
-342
1919
1463
1177
-157
509
-287
1007
-464
-464
-1015
-944
313
-1682
312
78
107
327
1738
469
-638
-190
-999
1028
652
-386
-170
724
196
162
-288
431
-332
-88
-380
-72
-919
-34
-33
63
180
-279
264
333
-93
228
186
924
688
-193
790
142
339
-1353
153
-326
-1251
-171
-710
736
171
487
531
293
656
-914
346
70
-1231
-731
-1229
-11
-292
-1465
-539
-697
815
-177
419
-1464
152
-730
-1303
-969
94
-2050
498
-712
-324
-43
144
-616
-1262
1957
-152
801
-597
-905
639
-506
-175
-636
-731
533
248
-409
55
102
0
-1519
-418
533
-83
209
-80
-556
-1302
-533
-187
50
781
-1257
-671
341
679
154
-660
-1158
-188
-501
-15
-570
-1062
-156
-316
-782
17
-365
468
-1012
407
-647
-308
-1644
-395
468
-1357
624
-1216
-592
-202
-1381
655
-642
-148
828
-620
-355
334
33
358
-419
-1273
747
-622
531
-315
-317
-142
-260
-94
-1536
-629
578
-1160
-1205
-822
635
-990
-896
-1192
-136
609
-1015
-502
796
-326
1086
400
-1414
436
312
576
435
-537
-469
-420
-597
201
675
442
-387
-486
441
-926
842
147
-734
854
-1274
-184
695
1285
571
-205
313
-369
-439
-691
144
227
-1308
-646
253
426
-667
518
553
925
412
-718
-190
874
210
42
-309
-12
-736
-73
-609
-529
-339
852
-437
444
-536
221
52
-253
-1018
103
-180
-223
271
681
-341
25
-237
-335
221
-508
-294
-525
-280
562
-57
350
-1088
53
-895
535
-1255
-649
451
-666
745
-1667
-2518
580
-101
2317
-90
1185
549
148
-22
164
44
-595
746
-892
304
-1734
-467
-1593
216
787
722
-279
971
-467
-897
71
-474
276
-1084
-1774
-677
726
143
-1338
679
-56
-429
141
-506
-1765
108
21
-449
-226
1021
78
-336
-728
-1056
-231
-256
-460
60
-861
-156
51
-1163
-313
-960
359
-545
-681
370
-205
-952
463
529
-809
-371
1192
20
-1
135
-148
1836
-59
353
445
351
-1403
358
-54
-409
-424
-304
-58
-975
-106
-1524
-129
598
93
-388
-467
929
-449
-3729
27
-947
633
-684
-543
-392
917
463
-323
-250
-309
-866
-1505
58
194
-1510
90
-174
828
366
296
-223
54
-1429
554
-365
-354
-341
-1281
-760
1419
996
-403
912
213
-146
608
-291
-1986
-33
484
-1192
520
524
121
682
-303
-257
233
605
-185
-1586
986
96
415
-600
292
-1325
632
-115
793
-770
-34
105
-920
-810
347
1090
-20
-668
455
-183
-450
673
-1222
1175
392
-257
-525
-1465
-95
-202
50
-1394
-386
450
-800
63
-236
-432
232
72
1837
111
-563
-155
-267
583
78
-125
-336
-731
429
520
-376
-197
-1132
-588
377
21
579
398
759
-319
-309
-491
876
-52
-231
24
1360
372
-258
73
-2459
-588
653
1681
85
239
-26
-1030
196
-683
-335
448
1082
176
1480
-438
592
598
-245
333
1422
369
-111
-382
189
720
-583
-1070
-681
-831
247
-395
-631
-47
269
129
512
664
-748
-245
-801
796
671
244
-1023
-655
227
-366
-317
-65
-1061
544
-191
-117
-625
-113
226
38
806
-785
-480
-1472
603
344
-626
39
-1660
472
28
279
-39
171
360
-800
-1152
-209
-145
-862
134
858
-209
-293
158
-634
-97
135
235
74
258
1165
304
-70
775
-170
-113
-39
-920
890
-325
-1261
71
-1586
-864
1335
604
-995
280
1443
-287
-479
600
-386
237
-88
382
449
1026
-212
600
819
-347
-90
-796
-1623
-1601
522
-353
-431
152
-795
213
-459
535
609
-1521
339
-68
877
-169
384
5
741
-1025
28
-259
574
-351
-360
-551
113
-779
-228
381
-263
520
635
782
851
845
-466
-2042
-1491
1128
-104
-58
1101
-69
822
-81
-773
-1720
-688
-498
460
-393
1313
-347
-441
1282
427
830
1238
-259
57
-1195
68
-274
-1900
-167
-1061
-68
-955
-783
-475
1539
236
-267
612
1744
594
-233
-305
360
-133
-589
-737
599
-1179
-210
-41
-955
-1074
635
-1384
-549
-546
215
1696
-236
-379
578
826
440
-1152
-371
-899
-481
689
-105
1063
1176
170
-774
-466
226
240
-669
-80
-203
172
1103
-253
700
160
-26
-1727
196
125
39
-1206
-518
690
589
-428
-611
-325
-575
-243
-681
158
384
307
-93
428
-25
-1028
-58
-503
-347
-1744
1322
2001
-990
-246
179
804
-80
-72
7
-181
-564
1354
-345
394
-362
699
-104
20
-845
739
947
-10
-302
-258
594
-320
382
92
-446
-881
405
-595
-52
324
-117
3
46
205
-168
-659
558
1234
-147
336
32
-783
864
408
92
39
78
29
266
-1015
180
323
1113
414
1387
713
782
148
203
-388
-332
496
893
-306
-355
146
-280
-1168
-262
231
-12
-1092
855
-957
-224
-717
-159
399
-1649
-73
-903
1497
-420
732
89
1734
145
-271
-196
-820
-419
-555
745
830
363
-374
-662
916
50
-79
851
-492
-134
-93
-854
-519
-345
-382
-787
-1022
0
-902
212
-1289
671
377
-910
-623
220
-368
-59
-118
210
-754
-689
320
-433
-465
67
-704
-270
-671
68
552
716
-1050
214
-935
-739
-960
696
-38
-504
668
-1009
602
-295
1047
936
-579
-2
-26
-1044
-15
20
-495
-177
579
-409
-107
-746
154
-85
13
-123
-594
312
279
-228
-747
221
-731
-1021
886
572
1296
-1671
-2193
-497
-374
1915
-607
-384
365
905
-439
106
1053
-190
-1212
-263
-225
-1332
-858
759
94
-190
-111
361
-1448
194
-602
497
-618
307
-273
-564
245
-565
-1505
474
452
245
-1269
675
-560
-247
753
430
-392
471
-484
184
416
-701
-177
201
226
-1332
-455
622
648
314
1191
-361
132
308
315
622
-923
-312
566
-805
-35
-1006
299
200
-785
-1595
-31
415
-271
393
685
112
833
-13
-757
23
1039
479
157
-386
860
-357
-1923
569
13
-330
-1317
-284
-24
1634
-1119
-192
826
2108
-525
-159
75
161
870
-8
167
355
-68
-121
249
-10
-413
45
-776
-68
3
186
-173
-271
-157
-1126
122
707
474
117
25
221
-365
825
-73
-107
-267
-146
588
-287
155
324
24
-976
565
-547
184
286
-15
-53
-254
662
528
-1324
167
20
-2155
-1771
-2119
644
-183
637
612
-431
-4663
-791
-95
576
-134
-436
206
-115
225
523
-1293
650
-1229
-275
591
-1508
-1136
-83
-40
-431
-127
-497
549
-311
1157
609
577
69
-338
-444
-830
1091
-454
-328
1255
-442
-252
-1965
-508
-190
384
-338
-906
-594
352
343
413
43
680
92
-1265
736
448
690
-1044
280
-453
-410
256
580
57
-1251
-287
13
982
-345
-1189
1237
97
-585
-541
-736
847
202
-164
-361
-516
384
158
-88
-272
978
471
375
-46
-1421
848
-233
-467
842
-501
-241
-258
456
-156
-436
228
383
-503
72
201
-975
220
44
-949
522
-462
1347
-1203
227
1199
365
-689
-94
-462
-330
764
-697
683
-401
-2235
649
-2209
133
-1064
119
789
367
-552
1380
-1031
13
-1395
-582
-443
583
1026
383
1243
-198
-577
264
1042
-2703
-284
-193
-418
442
-49
228
-985
480
-372
-81
545
741
190
-2003
1340
-1056
-668
-124
555
-1010
2013
-125
-1213
-224
232
-775
-840
265
-704
-193
-454
617
-750
442
-841
418
-90
-578
-536
560
1110
-128
-412
-318
734
-161
-1431
540
1355
-1514
93
-957
580
-116
-909
-172
210
-413
351
-165
409
582
-303
1008
236
-76
73
131
-1165
449
1105
924
257
305
556
461
584
-355
544
586
506
-1180
161
220
838
460
-947
314
-387
-352
1294
5
254
-398
928
1019
-1045
459
-822
-102
-454
82
287
421
775
1278
239
-333
-680
-1590
-151
1934
179
470
-533
275
-551
-193
-1393
-1178
-648
-50
-249
303
300
259
336
-557
326
142
-1003
167
-685
-257
-152
-212
-891
-99
-771
779
541
693
51
-290
498
-17
417
-271
180
-843
-252
-257
468
-485
-766
395
162
1513
426
-302
-1101
-607
-646
-60
244
-661
-137
242
311
-1386
161
542
-76
413
-237
-297
513
-298
-478
-408
851
304
426
72
71
-5
-213
74
-435
147
-264
-184
172
-36
-1005
708
-917
574
-557
-133
-297
61
495
309
-781
308
555
55
76
-576
65
73
-587
-803
-183
-840
-265
850
-1225
-774
1061
-30
-1393
-663
-762
95
196
214
413
197
-809
411
61
140
432
-857
332
-1421
-429
79
-684
-738
70
898
360
730
68
-3027
-32
78
-652
-818
936
678
-438
408
446
721
-491
619
-1691
-470
-961
20
1492
-266
67
-363
-349
-1656
-1620
-50
-67
-319
192
388
-98
10
-883
-535
-277
-364
-2428
771
1174
344
-1204
398
1125
-128
636
-279
-473
-842
-638
486
144
-1263
138
992
-645
-231
-976
267
-536
582
322
199
-623
-62
-282
-216
-659
51
-1488
-1733
-748
-1089
180
1069
-499
220
-485
-430
-460
-1216
103
-926
-1009
-1864
-1200
51
81
-263
-1426
-175
-1893
259
321
-80
-769
-35
-78
-518
249
-784
-842
-596
-245
-1423
819
701
-48
-150
-335
74
341
-1148
-931
340
-1137
-1291
766
1359
-456
1741
1181
-914
-2510
164
-513
-1032
-1
-800
1026
452
938
-184
-548
-3876
-637
531
-114
-449
-556
-1162
-769
506
-405
656
466
17
725
-626
925
22
-66
-1162
-692
990
-1038
-504
113
405
329
132
-887
289
-812
-261
356
632
825
-192
74
784
386
215
560
-104
637
70
-270
-739
-1496
-770
-931
-89
-540
628
200
-674
125
2303
-37
-929
522
-1326
515
1570
1410
-1444
381
-952
-2021
-474
953
-56
136
-416
-835
-149
-876
258
-159
-698
884
-759
42
526
-937
-161
-108
-36
-288
121
1084
-109
895
-922
-117
568
-694
-550
-903
-404
760
-1009
107
515
-100
-966
601
-763
-505
12
-569
251
-1435
-371
-1592
-355
-660
-98
638
-819
-1451
-242
124
421
-733
471
-173
-40
1130
288
582
27
-309
72
497
-1029
-190
-79
85
208
-14
-828
596
-64
-163
432
-808
603
-299
193
314
-446
-1130
-458
628
-665
39
739
238
-166
-519
-609
-408
431
628
350
-294
390
-296
-816
167
139
-150
-929
-746
-915
142
969
-790
-397
-146
626
785
-1043
-932
-437
-62
-1036
1021
-198
-265
210
434
-902
-165
404
-1016
-747
-201
-892
-733
-165
-724
-294
458
395
-753
-771
-1070
950
-1121
-50
111
-2431
1132
752
-924
-22
355
-99
-766
-311
-678
-936
-226
490
-684
1606
46
122
-60
113
-1057
-123
215
-825
-382
-512
-589
571
-1767
-126
-1571
-269
-421
-341
292
-578
-1071
-109
-634
729
612
117
277
549
1466
525
-944
-158
872
-552
-279
-754
-591
-603
281
-220
480
231
-264
808
-567
-114
267
564
-221
496
-87
-522
-1272
174
-40
-649
-368
-91
274
545
600
786
-966
-1055
-153
-301
469
-1057
-1090
-581
64
778
141
-237
380
-600
-1068
-123
1088
-35
1026
341
681
1112
342
-216
-885
-81
-700
794
589
405
110
-266
1044
-1061
201
32
-18
211
338
-638
-325
-176
-284
-204
313
-207
243
-405
-614
-499
769
-881
564
700
2198
-60
-162
-6
972
-185
217
-954
-604
1024
-80
475
9
243
-886
173
-236
-4
-441
-40
-529
-465
-1287
207
529
604
-780
53
-857
-35
-683
673
-46
431
111
1736
194
51
-1184
-1036
-392
-273
-1025
961
489
957
564
288
888
-43
1038
879
-504
-1249
1010
193
-344
397
-361
347
-1070
-198
-653
-376
-1441
827
1561
51
1444
-82
-1450
-1547
1
322
-949
274
360
1746
-293
559
-856
-108
-526
-268
-152
-691
-393
-221
-657
642
903
-214
288
29
-85
407
-885
-1585
465
-627
259
910
21
-458
-1118
857
645
180
-203
-1198
-154
-277
270
946
-736
-8
-244
-1040
-447
650
346
646
-627
-68
-269
1579
497
-411
-1000
289
-376
-1721
63
-1055
230
-78
510
548
1286
490
-581
685
19
-6
-349
1582
303
-623
-1072
390
-889
870
-592
387
11
142
371
-304
253
240
-131
-1138
1004
-466
-296
-596
-2128
-768
2816
-144
146
-1600
-23
-561
334
1116
-531
1561
294
369
-297
-139
119
22
-452
-453
565
-614
662
-190
-937
-797
-857
45
-158
269
-2178
-52
-459
993
-354
-1273
-947
335
-407
-123
180
-152
-637
-68
-322
-978
-353
427
286
137
840
101
763
-151
1068
443
-72
-1316
-1572
-914
-288
173
536
565
82
1553
8
-227
-509
-713
43
7
9
-217
174
256
925
-860
-182
224
171
-731
-603
724
-590
57
-497
-132
-223
-620
571
350
-666
671
674
709
-412
-1435
347
-138
891
-204
-479
-707
-528
-1486
107
285
1852
81
-528
267
-127
-462
409
335
299
299
-52
1169
1070
476
-1403
-598
178
-1400
-229
-315
674
-9
181
22
-935
-1089
-454
-266
-120
-107
-838
-336
-1564
-173
372
-337
-540
-463
-37
-497
-875
-363
314
156
-17
324
236
-524
-350
-1005
366
386
140
-773
-128
854
272
-348
177
-933
-63
504
-263
1010
-360
445
368
-75
-222
-55
713
-234
71
217
-478
1031
271
-656
1213
-1400
-879
2665
-785
1406
211
-161
-567
-483
-210
470
1023
-1294
574
451
249
-656
1291
364
-549
39
-428
245
388
-511
-105
-284
701
-499
147
568
553
-154
-11
-279
909
-203
554
-460
500
609
-442
626
153
469
-601
607
-412
-571
506
-770
134
-890
91
611
1456
-525
440
-684
209
-1261
-255
293
469
-667
-454
-475
517
2468
1143
-31
240
647
1634
190
77
-357
-305
271
285
123
-1118
396
-1093
673
836
-635
-232
931
-590
-717
-120
-400
767
-1094
-1217
207
-669
876
271
-1574
1455
-168
-180
292
-515
-29
-1086
-1459
-169
413
434
-624
-1368
104
-879
-490
-635
225
408
-268
361
-447
659
192
-15
234
1449
-1056
311
155
-295
668
451
-2367
459
721
-118
346
198
1413
-485
-389
684
-236
68
-471
-1123
1066
-1066
158
20
177
-514
-1248
425
60
-612
127
-11
-1016
-211
1540
510
635
-579
1143
135
-1177
624
-507
9
-10
-3
-182
7
-850
-271
-1071
-1097
412
-752
-484
-465
-1784
-112
-558
-659
735
27
678
703
152
-579
165
673
229
-142
599
1116
-24
1272
-800
-171
185
-45
821
1411
476
370
-810
-263
-53
977
1155
-136
726
-547
525
598
-866
196
263
496
-378
1955
-323
-41
469
-1452
-675
-375
928
-344
1257
48
-156
1789
-349
-347
-753
-25
-403
-258
198
195
-831
155
-540
-1140
85
712
10
-701
-226
-257
-339
1353
-1219
-209
989
197
866
107
-975
450
-170
220
-235
76
-719
1241
497
-400
-479
-1173
267
-646
780
932
-276
0
358
-563
502
-493
-560
-795
-71
-752
46
303
-354
-330
660
278
-348
514
768
642
54
-170
161
-258
176
1836
-514
412
395
72
-252
-607
207
-271
739
-568
-680
-750
361
978
-432
-367
-635
-518
306
-1160
-287
293
-385
-349
1399
243
1789
-1469
1117
366
1321
568
-1088
1288
-1350
595
-695
-1263
328
-1446
-45
47
-687
-665
268
190
-400
-665
-877
137
-809
1009
-886
-237
725
51
-1467
-221
-322
800
-242
364
1695
430
-64
-1171
-89
1158
528
281
36
-233
948
-166
486
324
-471
1139
203
1064
-104
47
736
-314
-1403
135
441
49
-1098
538
121
270
-456
-1545
-227
-1007
472
232
-2020
1271
-84
-174
-945
-622
645
342
-550
57
1305
-548
-951
178
-507
-5
712
75
-81
-406
-1350
-128
875
-785
627
-790
131
956
-125
-1871
179
340
500
961
166
339
192
6
633
308
-252
872
247
529
443
-340
698
864
-333
-268
-95
-9
-64
458
-293
-406
1442
-527
627
-215
91
-364
580
21
-68
-1841
303
135
-7
-49
-385
-113
0
-359
-202
-518
1653
40
549
-294
619
-183
101
-413
-1081
-1789
-611
20
33
-495
-403
-244
-776
-1317
-459
-592
-389
1194
442
-203
-21
234
-39
629
-1477
970
562
887
-852
16
115
-45
-326
-225
-1334
-1647
-636
244
-78
401
1439
73
21
-74
-203
-691
253
1387
103
621
-396
201
258
-323
-682
393
-107
-362
230
-502
-694
469
33
618
-220
-64
206
-975
43
29
916
288
286
-268
62
-144
-848
-908
64
-1236
189
-616
-172
933
224
-145
394
63
1394
153
-536
-742
-300
176
-404
362
42
-382
-1770
757
105
-813
692
574
-227
334
-397
-473
152
1809
555
-36
35
-20
-732
7
-14
-538
-636
353
-1068
422
-30
90
365
-839
-1686
-387
-523
778
-374
-601
207
-696
-369
-324
-16
164
261
-114
1352
-177
274
-596
636
-554
-276
204
-575
561
430
-167
252
218
-1514
-685
-65
418
1013
-91
103
535
342
318
183
-614
804
459
-139
-14
-409
-648
-132
1995
-701
-458
-51
1063
25
154
-991
-220
142
-902
1265
-405
-1921
-389
-93
-428
522
35
-185
333
753
16
-536
1270
-278
433
232
554
116
105
-81
506
467
-313
-333
-603
-520
-291
-485
-559
563
380
379
-87
-428
-1063
-542
714
-410
-1364
516
-606
-982
-333
-77
-210
947
-381
-361
582
-587
-49
-6
144
-590
-719
-647
64
-575
594
469
235
461
-702
921
-1731
-1025
902
394
840
405
-41
-147
-1481
-425
810
1111
-42
-217
1149
-85
-689
-277
-99
-254
516
-176
-121
-547
-701
420
-82
-668
-567
311
-727
-23
1058
1023
426
-633
-224
1030
-931
-807
609
-844
118
444
223
538
-14
870
-813
128
-301
-688
-974
-526
338
-177
601
-179
359
-160
-115
-641
577
834
720
-304
-917
-99
-526
-529
-265
-1175
-224
-336
154
-464
-24
-767
636
151
526
339
-27
565
-620
-633
-44
-957
-490
-608
-148
-1828
701
-177
1470
-719
493
185
-2823
-1531
-800
-543
721
-2002
559
542
778
-411
-168
545
-41
-527
1089
968
-51
286
-1253
-206
-803
-907
722
476
74
-821
1596
19
-607
191
1018
1335
-588
449
1744
-859
-48
-158
136
378
-539
-1102
-194
-1560
1155
861
-363
653
421
664
-1667
965
201
811
223
-103
60
15
-251
681
-33
-809
-784
212
-407
96
-2
-556
-223
941
-1300
-818
287
-13
-138
-200
1481
-988
235
-662
-716
793
-456
24
-322
-1205
40
804
-1320
1133
-953
745
-48
-61
344
-1840
623
-415
-641
-146
323
-655
314
-1117
-1050
754
-46
177
-1079
-51
996
301
-172
2700
-148
-154
1533
161
-981
191
780
-160
-643
-153
1061
-389
-288
254
-1184
603
-283
-330
-1362
-588
647
729
-263
486
-12
-1552
220
26
-509
780
83
102
-403
-975
-1206
235
1296
-253
-205
-74
857
1184
-199
502
68
-309
-1203
-148
194
-755
1262
-280
133
563
758
261
-331
-261
388
-44
403
-628
-151
707
453
-1109
-1417
431
11
46
44
670
-398
81
-39
-806
-1218
260
1103
602
760
436
1341
125
-632
-1690
843
-1185
-896
-407
16
-567
-919
1069
-202
-207
162
55
-1257
550
385
250
566
118
872
646
126
1205
-692
-801
491
-1205
-417
-274
104
809
-544
785
-664
-794
497
653
773
655
1231
485
-1003
1010
90
-322
1000
-321
-49
183
-836
207
-594
-301
942
-1626
567
899
-1150
-24
434
542
-1079
-622
-399
-369
-174
440
148
-254
79
972
-1026
184
99
-395
-1699
302
-828
813
501
-566
-932
-641
170
54
872
1084
354
-505
1462
592
-1176
-1230
233
-804
80
667
565
45
307
-284
50
66
68
332
944
413
-340
-608
-220
792
512
-309
660
-516
-649
325
145
-458
-114
31
571
370
105
-625
828
816
-223
-817
-537
628
-31
-1188
724
-1311
-297
-372
-139
380
-762
395
-774
545
-262
-63
1062
-153
218
99
-807
1093
234
763
-930
633
123
252
-42
864
-403
1180
-147
-252
1309
490
-309
200
365
-992
-8
-276
-418
-951
-575
847
-63
-859
-324
1009
-184
623
-270
-425
-1367
-509
805
676
1713
53
671
-21
220
-1217
0
-395
-453
-455
1309
-1035
-1461
409
-548
-44
-17
1251
-1029
-704
-173
236
-179
-205
-247
359
-948
-502
999
472
827
1646
959
699
175
384
-1367
-124
483
-952
-1082
-379
680
1389
-123
-278
-633
452
-235
213
-62
-1005
-617
260
-163
-1137
-356
17
-1116
-357
-325
654
-969
1081
49
870
302
-1999
1114
-272
422
-361
-1509
-361
603
-333
161
974
927
382
-192
-771
-10
-593
20
-428
-869
-678
-1002
-989
-477
856
145
587
189
655
216
-776
618
-2192
223
-739
802
-187
-142
-754
-172
-1585
679
698
223
-46
-1160
28
-133
-1064
-1061
394
-802
1690
-573
-916
-1008
96
-659
-799
-487
-1002
1197
215
831
-999
61
258
11
-2413
-645
-1738
-601
-413
442
2166
151
-422
145
384
193
-759
885
-142
-345
-1116
51
183
-997
83
-675
-819
589
-432
806
-378
221
-583
-1168
-253
720
-767
-1014
-254
978
-1093
-534
735
-818
-460
100
887
783
484
419
-698
737
-336
-574
-725
-244
602
-162
126
256
224
551
-1937
609
-1693
920
1575
350
-1339
-476
-2113
-265
768
146
909
607
327
156
1371
-1152
151
132
-481
-338
-147
-475
210
-864
-27
-1174
585
-1259
633
-463
222
165
-1550
-1418
334
839
-1650
-1064
-1075
404
47
-131
-684
-194
-342
-164
-1020
420
199
13
-133
525
-1213
-540
272
-309
-277
360
347
-146
-1333
438
-129
-584
1241
-1104
-708
-210
-162
504
908
11
-610
-191
1079
786
-557
-1099
-457
620
-484
378
-344
-628
200
-392
-321
593
-725
459
-550
803
-758
-1000
-1030
1157
644
-531
119
-843
-374
-699
268
-223
-239
-540
698
610
-1385
28
-433
-1114
-492
1117
-414
-512
662
1492
-21
-1009
15
-423
-993
-1828
-655
672
1378
-612
-1276
-748
322
1061
-699
-253
962
-393
496
82
-970
262
347
-426
-1574
634
-831
-128
-779
-1309
2906
-1265
106
567
-529
958
67
344
-1394
626
-1784
-149
-698
-872
-179
-123
283
946
-231
137
63
-27
258
-713
-565
358
-205
273
-188
-632
-292
118
-796
-468
526
-563
-1056
1128
739
769
-636
455
-563
619
821
-916
-890
1145
167
-253
375
-661
-601
-1045
699
376
-698
-193
-781
1017
-399
-234
425
324
-109
-710
-334
285
1226
-245
41
-1507
-373
-1056
469
343
-37
569
192
144
699
-383
-1769
-546
-755
159
-8
355
1186
-434;